<unk>	0
[SOS]	0
[EOS]	0
[MASK]	0
▁a	-0
in	-1
▁t	-2
▁s	-3
▁o	-4
ing	-5
▁b	-6
it	-7
▁w	-8
he	-9
▁p	-10
an	-11
re	-12
▁c	-13
le	-14
▁on	-15
er	-16
▁the	-17
at	-18
▁of	-19
▁in	-20
▁an	-21
ar	-22
ro	-23
▁f	-24
is	-25
▁m	-26
▁wit	-27
▁with	-28
▁h	-29
▁d	-30
▁g	-31
▁and	-32
▁l	-33
al	-34
en	-35
▁to	-36
▁st	-37
om	-38
ra	-39
ding	-40
es	-41
on	-42
ck	-43
ed	-44
ow	-45
▁is	-46
or	-47
et	-48
un	-49
la	-50
ir	-51
▁man	-52
▁n	-53
as	-54
op	-55
ting	-56
▁sit	-57
all	-58
ch	-59
up	-60
ri	-61
oo	-62
▁ne	-63
il	-64
▁th	-65
el	-66
ot	-67
ut	-68
▁wh	-69
id	-70
ur	-71
▁stan	-72
▁sitting	-73
ol	-74
ge	-75
ers	-76
▁are	-77
▁tw	-78
ic	-79
▁two	-80
us	-81
ard	-82
ab	-83
▁at	-84
ite	-85
king	-86
ig	-87
▁pe	-88
▁co	-89
her	-90
▁e	-91
▁sk	-92
▁be	-93
ss	-94
▁re	-95
ying	-96
▁standing	-97
▁peop	-98
▁people	-99
▁tra	-100
eb	-101
ide	-102
▁ro	-103
oard	-104
▁wom	-105
ad	-106
▁v	-107
xt	-108
able	-109
▁k	-110
▁do	-111
▁next	-112
▁white	-113
▁pla	-114
lo	-115
▁woman	-116
▁it	-117
ile	-118
ff	-119
▁hol	-120
▁table	-121
▁stre	-122
▁pl	-123
und	-124
▁street	-125
ome	-126
▁fi	-127
▁fro	-128
ood	-129
▁bo	-130
ve	-131
ver	-132
▁that	-133
▁y	-134
▁ri	-135
▁holding	-136
ce	-137
▁par	-138
▁gro	-139
▁sh	-140
▁some	-141
▁la	-142
▁top	-143
own	-144
▁ch	-145
▁gra	-146
▁sm	-147
ate	-148
▁pers	-149
▁person	-150
nt	-151
▁bat	-152
▁lar	-153
▁large	-154
ant	-155
oun	-156
▁down	-157
▁cat	-158
um	-159
▁wat	-160
and	-161
am	-162
che	-163
▁clo	-164
▁pi	-165
▁up	-166
▁group	-167
▁fl	-168
▁sn	-169
ion	-170
eld	-171
ach	-172
▁dog	-173
▁car	-174
ul	-175
▁out	-176
▁field	-177
▁snow	-178
ke	-179
▁near	-180
▁ten	-181
se	-182
▁small	-183
nis	-184
ign	-185
▁train	-186
▁bla	-187
▁his	-188
▁wal	-189
▁tennis	-190
▁front	-191
▁black	-192
▁park	-193
ack	-194
▁bus	-195
▁bas	-196
▁ra	-197
ree	-198
▁sur	-199
ug	-200
▁sign	-201
st	-202
ht	-203
room	-204
▁plate	-205
▁room	-206
ure	-207
row	-208
▁se	-209
▁riding	-210
ay	-211
ind	-212
ell	-213
▁bl	-214
▁air	-215
▁side	-216
▁grass	-217
▁kit	-218
oung	-219
▁red	-220
▁ph	-221
▁young	-222
▁bu	-223
▁water	-224
ue	-225
im	-226
▁by	-227
▁loo	-228
round	-229
one	-230
▁surf	-231
ain	-232
ving	-233
board	-234
▁buil	-235
ru	-236
▁bath	-237
ph	-238
eball	-239
ffe	-240
▁baseball	-241
▁bed	-242
side	-243
▁building	-244
red	-245
reen	-246
ink	-247
air	-248
▁skat	-249
▁has	-250
▁play	-251
▁com	-252
ter	-253
▁while	-254
▁playing	-255
▁walking	-256
pt	-257
▁skateb	-258
▁bathroom	-259
▁gi	-260
▁j	-261
zz	-262
ight	-263
yc	-264
▁food	-265
ds	-266
▁for	-267
▁hor	-268
▁blue	-269
▁her	-270
▁pizz	-271
ct	-272
▁po	-273
chen	-274
▁kitchen	-275
▁ot	-276
aring	-277
▁other	-278
ycle	-279
▁skateboard	-280
▁mot	-281
▁back	-282
▁wood	-283
age	-284
▁green	-285
umb	-286
▁ele	-287
▁there	-288
irt	-289
▁gira	-290
▁boy	-291
▁pizza	-292
▁li	-293
▁parked	-294
ie	-295
▁ball	-296
▁ski	-297
▁looking	-298
▁motor	-299
▁he	-300
ugh	-301
▁z	-302
ran	-303
▁le	-304
▁ben	-305
ture	-306
▁we	-307
▁over	-308
tle	-309
get	-310
ity	-311
▁beach	-312
▁eat	-313
▁toile	-314
▁clock	-315
▁toilet	-316
▁coup	-317
▁ca	-318
▁bear	-319
▁couple	-320
phant	-321
irl	-322
ep	-323
▁pic	-324
▁elephant	-325
▁des	-326
▁girl	-327
▁three	-328
▁wa	-329
▁men	-330
rel	-331
▁comp	-332
▁road	-333
▁con	-334
ent	-335
ild	-336
ame	-337
ane	-338
pp	-339
▁picture	-340
led	-341
▁city	-342
rella	-343
▁umb	-344
▁dis	-345
▁motorc	-346
▁umbrella	-347
▁she	-348
▁flying	-349
cks	-350
lass	-351
ris	-352
▁board	-353
▁wearing	-354
▁al	-355
▁tow	-356
dy	-357
▁sl	-358
▁motorcycle	-359
▁player	-360
▁lapt	-361
▁laptop	-362
▁wind	-363
ee	-364
ub	-365
ous	-366
▁game	-367
ill	-368
ine	-369
▁sever	-370
▁several	-371
ebra	-372
▁zebra	-373
▁child	-374
▁pas	-375
▁laying	-376
ong	-377
▁comput	-378
▁from	-379
▁sits	-380
ld	-381
▁as	-382
tain	-383
▁sand	-384
▁wooden	-385
rown	-386
▁bench	-387
▁int	-388
▁r	-389
▁window	-390
▁sink	-391
rough	-392
▁glass	-393
▁airp	-394
▁area	-395
ks	-396
▁one	-397
▁their	-398
▁through	-399
▁boat	-400
▁tru	-401
▁wall	-402
▁brown	-403
▁fris	-404
▁chair	-405
pen	-406
▁frisb	-407
ellow	-408
▁around	-409
▁horse	-410
▁old	-411
▁eating	-412
▁yellow	-413
▁cake	-414
ase	-415
▁light	-416
▁sc	-417
▁stop	-418
▁hand	-419
ull	-420
▁ta	-421
▁computer	-422
▁bir	-423
▁phone	-424
▁frisbee	-425
▁giraffe	-426
oto	-427
▁und	-428
▁photo	-429
▁de	-430
▁lit	-431
▁desk	-432
▁under	-433
ort	-434
ice	-435
▁ve	-436
▁open	-437
▁close	-438
▁fo	-439
uit	-440
▁outside	-441
ery	-442
way	-443
▁sp	-444
bo	-445
▁living	-446
▁tre	-447
▁mo	-448
▁truck	-449
▁sw	-450
▁fire	-451
cc	-452
▁te	-453
▁flo	-454
ross	-455
▁ban	-456
ag	-457
▁lot	-458
▁surfboard	-459
▁bow	-460
▁bun	-461
vered	-462
▁col	-463
▁di	-464
▁bri	-465
▁trees	-466
▁tree	-467
▁en	-468
ap	-469
▁cow	-470
▁coun	-471
les	-472
▁each	-473
ation	-474
ger	-475
▁covered	-476
▁many	-477
ady	-478
▁cour	-479
▁cell	-480
▁fil	-481
▁banan	-482
▁this	-483
▁very	-484
qu	-485
▁suit	-486
▁so	-487
ses	-488
▁beh	-489
▁behind	-490
▁bowl	-491
▁oran	-492
▁off	-493
▁filled	-494
▁court	-495
ground	-496
pla	-497
▁little	-498
▁sky	-499
ves	-500
▁cut	-501
uch	-502
▁its	-503
▁flow	-504
ump	-505
if	-506
▁fen	-507
▁show	-508
▁into	-509
ets	-510
gether	-511
▁together	-512
ction	-513
ors	-514
eat	-515
▁kite	-516
▁sandw	-517
▁abo	-518
▁rack	-519
ich	-520
iew	-521
▁airpl	-522
▁bi	-523
ts	-524
▁moun	-525
ly	-526
ush	-527
▁run	-528
▁sto	-529
▁background	-530
▁view	-531
▁dri	-532
▁inside	-533
alk	-534
dle	-535
▁skis	-536
▁ma	-537
▁shirt	-538
▁big	-539
▁sheep	-540
ped	-541
▁mir	-542
▁mirro	-543
▁stands	-544
▁app	-545
▁pre	-546
▁mirror	-547
▁displa	-548
▁bunch	-549
ry	-550
▁couch	-551
▁hot	-552
▁go	-553
cean	-554
▁ocean	-555
dr	-556
walk	-557
▁bird	-558
▁pie	-559
▁hy	-560
ffic	-561
▁counter	-562
do	-563
▁veget	-564
▁traffic	-565
drant	-566
rent	-567
▁hydrant	-568
ches	-569
▁mid	-570
▁airplane	-571
▁swing	-572
orm	-573
▁fence	-574
▁ted	-575
▁sandwich	-576
▁teddy	-577
▁display	-578
▁che	-579
▁floor	-580
uff	-581
▁hill	-582
▁vegetable	-583
▁ref	-584
other	-585
ang	-586
ching	-587
▁orange	-588
▁wi	-589
▁women	-590
▁head	-591
▁another	-592
fferent	-593
▁dirt	-594
▁different	-595
▁anim	-596
sing	-597
ment	-598
▁sidewalk	-599
▁tri	-600
ted	-601
ies	-602
ner	-603
▁animal	-604
▁mountain	-605
▁plane	-606
▁fe	-607
ress	-608
▁stand	-609
iling	-610
▁wave	-611
▁flowers	-612
▁tower	-613
▁jump	-614
mp	-615
▁tall	-616
ruit	-617
▁bab	-618
ouse	-619
▁met	-620
▁tracks	-621
▁vase	-622
▁parking	-623
ook	-624
▁horses	-625
▁fruit	-626
▁bro	-627
▁giraff	-628
etting	-629
▁giraffes	-630
▁hit	-631
▁cars	-632
▁plat	-633
▁sa	-634
▁along	-635
▁im	-636
▁baby	-637
ace	-638
▁day	-639
▁racket	-640
▁ground	-641
▁ar	-642
▁tie	-643
▁vegetables	-644
ip	-645
▁sun	-646
ugg	-647
▁us	-648
▁rid	-649
ren	-650
▁bot	-651
▁snowboard	-652
▁graz	-653
▁grassy	-654
vel	-655
▁being	-656
▁full	-657
ket	-658
te	-659
▁zebras	-660
▁hang	-661
▁elephants	-662
▁stuff	-663
▁rest	-664
▁gu	-665
hes	-666
▁slop	-667
▁station	-668
ari	-669
▁bananas	-670
▁dr	-671
ey	-672
▁middle	-673
uring	-674
hing	-675
▁un	-676
▁cl	-677
ated	-678
kes	-679
ven	-680
▁ha	-681
ick	-682
▁ad	-683
▁cup	-684
▁ready	-685
▁dress	-686
rying	-687
▁image	-688
▁pro	-689
ac	-690
▁four	-691
urn	-692
▁vari	-693
igh	-694
▁taking	-695
▁box	-696
▁cam	-697
▁crow	-698
▁signs	-699
▁hat	-700
▁cor	-701
▁bes	-702
▁bike	-703
▁them	-704
ator	-705
▁lo	-706
▁driving	-707
▁slope	-708
ult	-709
▁stuffed	-710
▁cross	-711
oli	-712
▁crowd	-713
ade	-714
▁ac	-715
rol	-716
▁piece	-717
ched	-718
▁wine	-719
▁long	-720
▁above	-721
dge	-722
ler	-723
▁pass	-724
▁brocc	-725
▁lugg	-726
▁guy	-727
▁wor	-728
▁luggage	-729
▁broccoli	-730
▁em	-731
▁across	-732
▁grazing	-733
▁cows	-734
▁cont	-735
ess	-736
▁beside	-737
▁refri	-738
▁kn	-739
▁prep	-740
uts	-741
▁skiing	-742
▁skate	-743
▁refriger	-744
▁kid	-745
▁snowy	-746
▁travel	-747
▁key	-748
▁fri	-749
▁hanging	-750
▁door	-751
ms	-752
▁wii	-753
▁camer	-754
▁don	-755
▁during	-756
▁refrigerator	-757
iting	-758
cor	-759
▁tele	-760
▁bic	-761
▁glasses	-762
▁color	-763
▁holds	-764
▁bag	-765
▁doub	-766
▁cle	-767
▁pink	-768
res	-769
▁camera	-770
der	-771
▁tal	-772
▁children	-773
▁doing	-774
▁rem	-775
ust	-776
▁sho	-777
▁past	-778
▁herd	-779
ning	-780
ak	-781
▁pair	-782
▁buildings	-783
ese	-784
▁double	-785
▁pap	-786
▁pole	-787
▁passen	-788
▁keyboard	-789
▁oven	-790
▁rac	-791
▁decor	-792
▁empt	-793
ful	-794
▁bicycle	-795
▁empty	-796
▁corner	-797
vis	-798
▁going	-799
▁per	-800
▁ser	-801
▁umbrellas	-802
▁high	-803
▁cutting	-804
▁cab	-805
▁track	-806
▁control	-807
▁pot	-808
▁walk	-809
▁watching	-810
▁kites	-811
▁stove	-812
▁who	-813
▁looks	-814
▁mar	-815
▁trick	-816
vision	-817
▁jumping	-818
▁television	-819
▁me	-820
▁bre	-821
▁smiling	-822
rush	-823
▁chairs	-824
▁bottle	-825
▁socc	-826
form	-827
▁soccer	-828
▁dogs	-829
▁boats	-830
▁pit	-831
▁cur	-832
▁talking	-833
▁din	-834
▁ag	-835
▁suitc	-836
▁posing	-837
▁ste	-838
▁airport	-839
▁vide	-840
▁traveling	-841
ght	-842
▁video	-843
ten	-844
ans	-845
▁tv	-846
▁colorful	-847
▁swinging	-848
▁set	-849
▁remot	-850
▁birds	-851
▁topped	-852
▁various	-853
▁lady	-854
▁animals	-855
▁all	-856
▁using	-857
▁getting	-858
▁body	-859
▁contain	-860
ces	-861
▁cabin	-862
▁paper	-863
▁pat	-864
ping	-865
▁pain	-866
▁night	-867
▁plates	-868
▁mon	-869
▁home	-870
pe	-871
▁again	-872
oth	-873
ft	-874
▁against	-875
▁fore	-876
▁rail	-877
▁coffe	-878
▁brick	-879
quet	-880
▁deck	-881
leep	-882
▁throw	-883
▁bar	-884
▁coffee	-885
arding	-886
▁jet	-887
▁som	-888
ast	-889
▁meat	-890
▁banana	-891
▁cheese	-892
▁ite	-893
▁river	-894
ud	-895
▁carrying	-896
gs	-897
▁him	-898
▁pol	-899
cher	-900
▁lea	-901
▁lots	-902
▁motorcycles	-903
▁someone	-904
▁can	-905
aur	-906
▁tray	-907
▁bedroom	-908
▁somet	-909
▁pull	-910
ian	-911
▁house	-912
▁something	-913
aurant	-914
▁restaurant	-915
iss	-916
▁waiting	-917
▁drink	-918
▁lin	-919
▁bears	-920
▁lights	-921
ored	-922
▁row	-923
▁shel	-924
uth	-925
▁remote	-926
▁or	-927
clo	-928
▁boo	-929
▁metal	-930
▁shower	-931
est	-932
▁players	-933
ool	-934
▁plant	-935
ato	-936
alf	-937
▁skateboarder	-938
▁sleep	-939
▁runway	-940
ced	-941
▁face	-942
▁tile	-943
▁outdo	-944
clos	-945
▁toy	-946
▁items	-947
▁about	-948
▁racquet	-949
▁ramp	-950
▁skier	-951
▁carro	-952
ave	-953
▁res	-954
ark	-955
▁enclos	-956
▁dough	-957
▁clou	-958
▁running	-959
▁mic	-960
erse	-961
▁surfer	-962
▁slic	-963
▁book	-964
▁pile	-965
▁busy	-966
ases	-967
▁line	-968
ial	-969
▁hands	-970
▁att	-971
▁rain	-972
▁pur	-973
▁interse	-974
▁hel	-975
gra	-976
▁passenger	-977
▁lying	-978
▁mouth	-979
▁screen	-980
▁intersection	-981
▁sil	-982
ty	-983
▁ce	-984
▁doughn	-985
▁dressed	-986
▁male	-987
are	-988
▁toward	-989
arm	-990
▁am	-991
▁monit	-992
▁seat	-993
▁half	-994
▁store	-995
▁surfing	-996
▁gre	-997
▁numb	-998
▁like	-999
▁suitcase	-1000
▁whe	-1001
▁photogra	-1002
▁pan	-1003
▁rock	-1004
▁decker	-1005
▁no	-1006
we	-1007
▁tub	-1008
ple	-1009
▁slice	-1010
▁batter	-1011
raw	-1012
▁shown	-1013
ges	-1014
▁brush	-1015
▁sciss	-1016
ones	-1017
ife	-1018
▁preparing	-1019
▁dark	-1020
▁jack	-1021
uce	-1022
▁rides	-1023
ive	-1024
▁made	-1025
phone	-1026
hic	-1027
▁pulling	-1028
▁look	-1029
▁vehic	-1030
▁scissors	-1031
▁gray	-1032
▁silver	-1033
to	-1034
▁sleeping	-1035
cl	-1036
▁mat	-1037
▁bridge	-1038
▁surround	-1039
▁ty	-1040
ading	-1041
▁donuts	-1042
▁tooth	-1043
art	-1044
▁zoo	-1045
▁way	-1046
col	-1047
▁number	-1048
▁microw	-1049
▁enclosure	-1050
ny	-1051
▁kids	-1052
▁post	-1053
iz	-1054
ating	-1055
▁controller	-1056
▁bet	-1057
▁hair	-1058
▁knife	-1059
ather	-1060
ars	-1061
▁surrounded	-1062
sh	-1063
ond	-1064
▁microwave	-1065
ween	-1066
▁forest	-1067
▁mult	-1068
ron	-1069
▁between	-1070
▁showing	-1071
aning	-1072
▁jacket	-1073
gg	-1074
▁bright	-1075
▁adult	-1076
▁carrots	-1077
▁meal	-1078
ale	-1079
▁bread	-1080
▁photograph	-1081
▁colored	-1082
▁pill	-1083
ooking	-1084
▁decorated	-1085
▁lake	-1086
▁few	-1087
eath	-1088
▁sal	-1089
iform	-1090
▁uniform	-1091
ect	-1092
▁boys	-1093
▁cabinets	-1094
ash	-1095
▁lined	-1096
▁buses	-1097
ll	-1098
▁count	-1099
▁mouse	-1100
▁walks	-1101
▁older	-1102
ved	-1103
elf	-1104
pes	-1105
anes	-1106
▁skiers	-1107
▁scen	-1108
▁blan	-1109
ached	-1110
▁furn	-1111
▁cand	-1112
iture	-1113
▁purple	-1114
▁furniture	-1115
▁stat	-1116
▁"	-1117
▁bran	-1118
ime	-1119
ries	-1120
▁ex	-1121
▁grey	-1122
▁oranges	-1123
▁books	-1124
▁dock	-1125
▁girls	-1126
▁cho	-1127
▁stick	-1128
▁outdoor	-1129
▁stri	-1130
ser	-1131
▁pick	-1132
lic	-1133
▁shop	-1134
▁ho	-1135
▁dish	-1136
▁pillow	-1137
▁have	-1138
▁cloudy	-1139
▁waves	-1140
atoes	-1141
▁comm	-1142
▁displayed	-1143
▁throwing	-1144
pped	-1145
▁coming	-1146
▁chocol	-1147
old	-1148
▁attached	-1149
▁incl	-1150
▁fork	-1151
day	-1152
▁chocolate	-1153
▁eng	-1154
▁fla	-1155
▁fem	-1156
▁monitor	-1157
▁onto	-1158
▁clean	-1159
▁making	-1160
▁leaning	-1161
▁windows	-1162
ings	-1163
▁helm	-1164
▁ob	-1165
ily	-1166
▁crossing	-1167
▁ass	-1168
inking	-1169
▁shelf	-1170
oon	-1171
ish	-1172
▁stone	-1173
▁perform	-1174
▁elect	-1175
▁dining	-1176
▁salad	-1177
▁scene	-1178
▁cook	-1179
▁cats	-1180
ance	-1181
irth	-1182
▁birth	-1183
▁rocks	-1184
▁painted	-1185
ble	-1186
▁drinking	-1187
▁hitting	-1188
▁birthday	-1189
▁pen	-1190
▁market	-1191
by	-1192
▁turn	-1193
▁basket	-1194
▁seen	-1195
▁watch	-1196
▁lush	-1197
de	-1198
▁meter	-1199
▁bea	-1200
▁walls	-1201
▁ed	-1202
▁apples	-1203
▁female	-1204
els	-1205
▁resting	-1206
▁lamp	-1207
▁pub	-1208
▁work	-1209
▁towards	-1210
▁flower	-1211
▁fruits	-1212
▁office	-1213
int	-1214
ken	-1215
▁apple	-1216
▁country	-1217
▁public	-1218
▁beaut	-1219
▁clear	-1220
▁tables	-1221
▁pa	-1222
ents	-1223
▁sunny	-1224
▁fries	-1225
▁setting	-1226
▁plast	-1227
▁lay	-1228
▁clot	-1229
ary	-1230
eth	-1231
ire	-1232
▁beautif	-1233
▁blanket	-1234
▁plastic	-1235
oot	-1236
▁catch	-1237
▁leaves	-1238
▁moving	-1239
aching	-1240
jo	-1241
▁shot	-1242
▁police	-1243
▁pictures	-1244
▁stopped	-1245
▁surfboards	-1246
ti	-1247
▁not	-1248
▁catcher	-1249
▁been	-1250
▁edge	-1251
▁tom	-1252
▁snowboarder	-1253
▁bikes	-1254
▁mountains	-1255
less	-1256
▁teeth	-1257
▁helmet	-1258
sp	-1259
resh	-1260
▁assort	-1261
▁enjo	-1262
▁beautiful	-1263
▁stack	-1264
▁squ	-1265
▁path	-1266
▁platform	-1267
▁working	-1268
▁fresh	-1269
▁smile	-1270
▁toothb	-1271
▁donut	-1272
▁sub	-1273
▁short	-1274
▁ur	-1275
lection	-1276
▁ride	-1277
▁statue	-1278
▁undern	-1279
▁underneath	-1280
▁trying	-1281
▁cre	-1282
▁bel	-1283
▁slices	-1284
▁topping	-1285
ety	-1286
▁yard	-1287
▁branch	-1288
tered	-1289
▁prepa	-1290
▁dist	-1291
▁cart	-1292
ear	-1293
▁base	-1294
hed	-1295
▁lap	-1296
▁af	-1297
▁shap	-1298
▁sing	-1299
▁time	-1300
▁but	-1301
hered	-1302
ally	-1303
▁fam	-1304
▁wild	-1305
▁carri	-1306
oarding	-1307
▁van	-1308
▁pieces	-1309
▁having	-1310
▁nice	-1311
▁skateboarding	-1312
▁wet	-1313
▁pitcher	-1314
len	-1315
▁placed	-1316
▁computers	-1317
▁shows	-1318
▁perched	-1319
▁fac	-1320
▁new	-1321
run	-1322
inal	-1323
▁mil	-1324
▁draw	-1325
▁pitch	-1326
▁cellphone	-1327
▁case	-1328
▁pepp	-1329
wn	-1330
▁dire	-1331
▁shore	-1332
▁passing	-1333
ca	-1334
ling	-1335
▁gar	-1336
gers	-1337
▁spe	-1338
▁put	-1339
▁vehicle	-1340
▁moder	-1341
▁appl	-1342
▁cooking	-1343
▁surface	-1344
▁sandy	-1345
▁dinner	-1346
ist	-1347
▁arm	-1348
▁vases	-1349
▁they	-1350
▁hotel	-1351
▁eaten	-1352
▁family	-1353
oll	-1354
▁modern	-1355
▁neck	-1356
▁trains	-1357
▁laptops	-1358
▁dry	-1359
ric	-1360
▁tan	-1361
top	-1362
▁applian	-1363
▁doughnut	-1364
▁ind	-1365
▁land	-1366
▁conc	-1367
▁boards	-1368
ition	-1369
▁beer	-1370
ix	-1371
▁pizzas	-1372
▁nin	-1373
▁town	-1374
▁chick	-1375
▁ey	-1376
▁types	-1377
▁brushing	-1378
▁tiled	-1379
▁sty	-1380
▁just	-1381
▁sauce	-1382
▁reading	-1383
ines	-1384
ats	-1385
▁multip	-1386
▁benches	-1387
▁trun	-1388
bor	-1389
▁ninten	-1390
▁single	-1391
▁toppings	-1392
▁multiple	-1393
▁nintendo	-1394
▁roll	-1395
▁engine	-1396
▁others	-1397
iti	-1398
▁watches	-1399
▁was	-1400
▁feat	-1401
▁doughnuts	-1402
ides	-1403
eeding	-1404
▁ped	-1405
▁chicken	-1406
▁pret	-1407
▁gat	-1408
▁graff	-1409
th	-1410
▁gri	-1411
▁plants	-1412
▁variety	-1413
▁kind	-1414
ley	-1415
▁take	-1416
bb	-1417
ject	-1418
▁pack	-1419
que	-1420
▁mounted	-1421
▁enjoying	-1422
ized	-1423
▁curb	-1424
▁place	-1425
▁equ	-1426
▁guys	-1427
▁graffiti	-1428
▁sail	-1429
▁left	-1430
armac	-1431
▁bowls	-1432
htub	-1433
▁trucks	-1434
▁pretty	-1435
▁tarmac	-1436
▁bathtub	-1437
ming	-1438
▁flat	-1439
ely	-1440
▁see	-1441
ures	-1442
▁hotdo	-1443
▁distance	-1444
▁sof	-1445
▁passengers	-1446
▁phones	-1447
▁after	-1448
▁woods	-1449
▁pad	-1450
▁gear	-1451
cial	-1452
vers	-1453
▁shoes	-1454
▁performing	-1455
▁appliances	-1456
os	-1457
▁end	-1458
▁gathered	-1459
▁cute	-1460
▁desser	-1461
▁well	-1462
road	-1463
▁rice	-1464
▁tricks	-1465
▁fenced	-1466
▁swim	-1467
▁pedest	-1468
▁containing	-1469
▁bal	-1470
▁fly	-1471
▁.	-1472
ins	-1473
▁glo	-1474
▁arran	-1475
▁candles	-1476
place	-1477
▁curtain	-1478
ages	-1479
▁stair	-1480
▁tran	-1481
▁bottles	-1482
▁carriage	-1483
▁clut	-1484
▁break	-1485
▁five	-1486
▁team	-1487
▁flies	-1488
▁pasture	-1489
▁du	-1490
▁bags	-1491
▁railroad	-1492
▁toothbrush	-1493
▁feeding	-1494
▁dirty	-1495
▁i	-1496
rete	-1497
▁concrete	-1498
ronic	-1499
▁spoon	-1500
▁sch	-1501
man	-1502
▁foot	-1503
▁below	-1504
▁poles	-1505
▁cattle	-1506
▁poin	-1507
▁onion	-1508
pack	-1509
head	-1510
▁right	-1511
enter	-1512
uding	-1513
▁match	-1514
▁school	-1515
▁electronic	-1516
▁drinks	-1517
ram	-1518
▁including	-1519
▁center	-1520
anc	-1521
▁pillows	-1522
▁steel	-1523
▁fireplace	-1524
light	-1525
iding	-1526
▁takes	-1527
ini	-1528
▁pul	-1529
▁among	-1530
▁sofa	-1531
▁clos	-1532
▁hu	-1533
▁step	-1534
ession	-1535
▁backpack	-1536
ball	-1537
intage	-1538
▁crowded	-1539
▁vintage	-1540
fe	-1541
▁striped	-1542
upp	-1543
▁polar	-1544
ips	-1545
▁pulled	-1546
ads	-1547
▁wr	-1548
uches	-1549
▁alone	-1550
▁sandwic	-1551
▁nearby	-1552
▁beds	-1553
▁ap	-1554
▁ti	-1555
▁prof	-1556
▁boxes	-1557
▁sandwiches	-1558
▁loc	-1559
▁wra	-1560
▁painting	-1561
▁huge	-1562
▁catching	-1563
▁let	-1564
▁skateboards	-1565
▁chur	-1566
▁object	-1567
▁trunk	-1568
▁fridge	-1569
▁direction	-1570
▁gold	-1571
▁qu	-1572
▁mess	-1573
▁feet	-1574
▁planes	-1575
ames	-1576
▁sliced	-1577
▁sinks	-1578
▁church	-1579
▁container	-1580
▁cream	-1581
▁giant	-1582
▁cabinet	-1583
lin	-1584
ged	-1585
rist	-1586
▁equip	-1587
▁art	-1588
ered	-1589
▁del	-1590
▁shaped	-1591
▁suitcases	-1592
▁equipment	-1593
self	-1594
▁vehicles	-1595
▁round	-1596
▁bicycles	-1597
ural	-1598
▁both	-1599
anding	-1600
▁deser	-1601
▁served	-1602
ens	-1603
stru	-1604
▁kne	-1605
▁reaching	-1606
▁tour	-1607
▁plays	-1608
▁where	-1609
▁putting	-1610
▁bushes	-1611
▁profession	-1612
ical	-1613
▁wait	-1614
mb	-1615
▁asian	-1616
▁clothes	-1617
▁floating	-1618
▁stall	-1619
▁wed	-1620
iv	-1621
▁smiles	-1622
▁professional	-1623
▁legs	-1624
▁tomatoes	-1625
▁low	-1626
eling	-1627
▁poses	-1628
aking	-1629
▁atop	-1630
alm	-1631
▁surfers	-1632
▁mas	-1633
▁part	-1634
ore	-1635
▁trail	-1636
▁sticking	-1637
▁away	-1638
▁towel	-1639
▁pedestri	-1640
wing	-1641
▁dishes	-1642
ycl	-1643
▁serve	-1644
▁taken	-1645
▁space	-1646
▁prepares	-1647
▁lays	-1648
▁rug	-1649
▁cover	-1650
▁fa	-1651
▁hay	-1652
▁wire	-1653
▁blo	-1654
▁airplanes	-1655
rus	-1656
▁style	-1657
land	-1658
glass	-1659
▁serving	-1660
▁potatoes	-1661
▁commer	-1662
ons	-1663
▁stain	-1664
▁bak	-1665
elling	-1666
▁check	-1667
▁staring	-1668
▁commercial	-1669
▁blen	-1670
iness	-1671
ident	-1672
▁offic	-1673
mas	-1674
▁mother	-1675
▁foods	-1676
let	-1677
▁win	-1678
▁business	-1679
▁reflection	-1680
▁smo	-1681
▁pose	-1682
▁dev	-1683
▁pos	-1684
▁frien	-1685
fast	-1686
ber	-1687
owing	-1688
glasses	-1689
▁breakfast	-1690
ashion	-1691
▁cement	-1692
▁cra	-1693
▁which	-1694
▁christ	-1695
▁form	-1696
sc	-1697
rench	-1698
▁pool	-1699
▁shorts	-1700
▁subway	-1701
▁design	-1702
▁stacked	-1703
▁christmas	-1704
iny	-1705
▁farm	-1706
ise	-1707
▁ump	-1708
▁lone	-1709
▁square	-1710
vent	-1711
▁soup	-1712
boarding	-1713
ward	-1714
▁cooked	-1715
aded	-1716
▁lun	-1717
▁straw	-1718
▁french	-1719
ract	-1720
▁har	-1721
▁same	-1722
ular	-1723
▁urinal	-1724
co	-1725
▁trash	-1726
ils	-1727
▁dessert	-1728
▁pow	-1729
▁kitten	-1730
▁flag	-1731
ban	-1732
▁roo	-1733
▁cluttered	-1734
▁gard	-1735
▁highway	-1736
out	-1737
urry	-1738
▁seated	-1739
io	-1740
ists	-1741
▁swings	-1742
▁umpire	-1743
▁outdoors	-1744
▁games	-1745
▁outf	-1746
▁docked	-1747
▁garden	-1748
▁swimming	-1749
▁hard	-1750
per	-1751
▁sunglasses	-1752
▁fun	-1753
▁ham	-1754
▁get	-1755
▁pepper	-1756
▁clocks	-1757
▁wedding	-1758
artment	-1759
▁couches	-1760
ults	-1761
▁overl	-1762
▁blender	-1763
▁boarding	-1764
▁cro	-1765
▁hotdog	-1766
struction	-1767
tom	-1768
▁assortment	-1769
ual	-1770
ants	-1771
itary	-1772
▁adults	-1773
kets	-1774
▁ret	-1775
ium	-1776
▁mach	-1777
liner	-1778
▁lad	-1779
icing	-1780
▁gr	-1781
▁mus	-1782
▁ter	-1783
▁cla	-1784
▁say	-1785
▁ent	-1786
▁ear	-1787
▁ice	-1788
▁controllers	-1789
▁gather	-1790
made	-1791
▁prod	-1792
▁drives	-1793
▁hillside	-1794
ded	-1795
▁kick	-1796
▁restroom	-1797
▁doors	-1798
oni	-1799
pping	-1800
▁flock	-1801
▁signal	-1802
▁desktop	-1803
▁yo	-1804
▁shelves	-1805
▁fashion	-1806
▁rocky	-1807
▁ceiling	-1808
▁military	-1809
▁eg	-1810
▁onions	-1811
iler	-1812
▁ledge	-1813
ddle	-1814
▁eyes	-1815
▁fish	-1816
▁jumps	-1817
▁lawn	-1818
▁wooded	-1819
▁does	-1820
▁inter	-1821
▁stainless	-1822
▁appro	-1823
▁skies	-1824
▁fall	-1825
▁cr	-1826
▁facing	-1827
▁stairs	-1828
▁ext	-1829
▁race	-1830
▁acc	-1831
▁fram	-1832
▁sea	-1833
▁toddle	-1834
fore	-1835
▁eats	-1836
▁gate	-1837
▁things	-1838
▁toddler	-1839
vy	-1840
nic	-1841
▁pointing	-1842
ned	-1843
▁ut	-1844
▁clouds	-1845
▁drawn	-1846
▁desert	-1847
▁assorted	-1848
br	-1849
▁chop	-1850
▁prop	-1851
▁compet	-1852
▁before	-1853
▁cups	-1854
read	-1855
▁card	-1856
▁closeup	-1857
go	-1858
▁eggs	-1859
ious	-1860
▁free	-1861
▁event	-1862
vert	-1863
▁neat	-1864
▁includ	-1865
irc	-1866
▁appe	-1867
▁doll	-1868
▁make	-1869
▁hold	-1870
▁vegg	-1871
▁glove	-1872
▁lunch	-1873
set	-1874
▁advert	-1875
▁mod	-1876
▁steps	-1877
▁construction	-1878
adow	-1879
▁cost	-1880
▁outfit	-1881
▁says	-1882
iff	-1883
arrow	-1884
▁coat	-1885
▁roof	-1886
ns	-1887
▁steep	-1888
eds	-1889
▁mini	-1890
▁atte	-1891
icks	-1892
ative	-1893
▁arms	-1894
ations	-1895
▁rackets	-1896
rushes	-1897
▁arranged	-1898
cture	-1899
▁circ	-1900
▁party	-1901
▁fig	-1902
▁costum	-1903
▁disc	-1904
▁picnic	-1905
▁cloth	-1906
▁floors	-1907
▁snowboarding	-1908
▁wheel	-1909
▁landing	-1910
▁pond	-1911
▁broken	-1912
▁electric	-1913
ps	-1914
▁trailer	-1915
phones	-1916
▁monitors	-1917
bs	-1918
▁closed	-1919
xing	-1920
▁mix	-1921
▁steam	-1922
▁overlooking	-1923
ia	-1924
▁spr	-1925
▁bottom	-1926
▁dep	-1927
▁lett	-1928
aches	-1929
▁type	-1930
▁friends	-1931
cakes	-1932
▁port	-1933
▁pots	-1934
▁tied	-1935
▁trans	-1936
uc	-1937
▁cage	-1938
▁graze	-1939
▁kneeling	-1940
▁ju	-1941
▁chef	-1942
key	-1943
▁wide	-1944
▁boarder	-1945
ung	-1946
▁narrow	-1947
▁must	-1948
az	-1949
▁anti	-1950
▁fight	-1951
▁mag	-1952
▁hous	-1953
li	-1954
uck	-1955
▁jo	-1956
▁fanc	-1957
▁pasta	-1958
ony	-1959
▁nap	-1960
▁messy	-1961
▁rider	-1962
▁overhead	-1963
▁orn	-1964
▁happ	-1965
▁colors	-1966
▁je	-1967
▁indo	-1968
▁reads	-1969
▁skating	-1970
▁himself	-1971
▁machine	-1972
na	-1973
so	-1974
ctor	-1975
▁opp	-1976
▁stra	-1977
▁carp	-1978
▁net	-1979
▁sale	-1980
▁bever	-1981
▁fancy	-1982
▁cakes	-1983
▁sides	-1984
▁commut	-1985
▁sweat	-1986
▁stru	-1987
uching	-1988
▁appears	-1989
▁ket	-1990
▁suits	-1991
▁leather	-1992
▁plain	-1993
▁chain	-1994
▁pract	-1995
▁walkway	-1996
▁towels	-1997
▁grill	-1998
▁ties	-1999
▁smart	-2000
▁carpet	-2001
▁sunset	-2002
▁transit	-2003
▁veggies	-2004
▁bite	-2005
▁cap	-2006
▁bik	-2007
▁rela	-2008
▁foreground	-2009
▁parti	-2010
▁action	-2011
▁features	-2012
ican	-2013
▁partially	-2014
▁bur	-2015
▁good	-2016
▁teen	-2017
▁pants	-2018
▁drive	-2019
▁shade	-2020
▁sport	-2021
ates	-2022
▁cas	-2023
▁pastries	-2024
▁antique	-2025
▁still	-2026
▁loaded	-2027
▁gl	-2028
ring	-2029
▁urban	-2030
▁beard	-2031
▁stret	-2032
▁pepperoni	-2033
▁mush	-2034
▁what	-2035
▁carrot	-2036
▁photos	-2037
▁toilets	-2038
▁mug	-2039
▁pier	-2040
▁enter	-2041
ators	-2042
▁doorway	-2043
▁mushroom	-2044
▁block	-2045
▁scoo	-2046
▁ship	-2047
▁clothing	-2048
▁commuter	-2049
▁mis	-2050
▁held	-2051
▁palm	-2052
▁shoul	-2053
▁refle	-2054
▁scooter	-2055
▁baked	-2056
▁device	-2057
▁hole	-2058
▁sill	-2059
▁toys	-2060
▁position	-2061
▁beneath	-2062
▁winter	-2063
▁wrapped	-2064
▁fashioned	-2065
▁2	-2066
▁leash	-2067
▁vis	-2068
▁lies	-2069
▁rust	-2070
▁smoke	-2071
▁pastry	-2072
▁racing	-2073
▁tomato	-2074
▁saus	-2075
▁kinds	-2076
▁blurry	-2077
me	-2078
house	-2079
▁gets	-2080
▁bull	-2081
imb	-2082
▁paw	-2083
▁toas	-2084
▁chips	-2085
▁makes	-2086
▁class	-2087
▁railing	-2088
▁giving	-2089
▁structure	-2090
ork	-2091
▁pee	-2092
▁harbor	-2093
▁sprink	-2094
▁contains	-2095
▁decorative	-2096
▁sy	-2097
▁pedestrians	-2098
▁fighter	-2099
ib	-2100
ne	-2101
▁supp	-2102
▁houses	-2103
▁apartment	-2104
cket	-2105
mon	-2106
range	-2107
▁model	-2108
▁mud	-2109
cker	-2110
very	-2111
▁feed	-2112
▁blond	-2113
▁island	-2114
▁lettuce	-2115
▁petting	-2116
▁wets	-2117
da	-2118
▁used	-2119
▁wetsuit	-2120
▁lid	-2121
▁seag	-2122
ighting	-2123
be	-2124
ering	-2125
▁garage	-2126
▁peppers	-2127
▁includes	-2128
▁seagull	-2129
▁sort	-2130
▁rests	-2131
▁sheet	-2132
▁self	-2133
▁use	-2134
▁comf	-2135
▁streets	-2136
act	-2137
▁fur	-2138
cting	-2139
▁spot	-2140
▁stun	-2141
ng	-2142
ught	-2143
▁med	-2144
▁containers	-2145
▁tur	-2146
eller	-2147
▁leading	-2148
ired	-2149
yard	-2150
▁dra	-2151
▁opened	-2152
▁prepared	-2153
▁gla	-2154
▁mit	-2155
▁mound	-2156
▁bunches	-2157
▁foll	-2158
acon	-2159
▁war	-2160
ef	-2161
▁vanity	-2162
▁produce	-2163
▁nood	-2164
▁multi	-2165
..	-2166
▁six	-2167
▁siz	-2168
▁leaf	-2169
▁ru	-2170
▁beans	-2171
▁return	-2172
sting	-2173
▁cele	-2174
lage	-2175
▁hall	-2176
▁scul	-2177
▁bacon	-2178
▁upside	-2179
idential	-2180
▁hats	-2181
▁here	-2182
▁barn	-2183
▁ripe	-2184
▁utens	-2185
▁waits	-2186
▁candle	-2187
▁writing	-2188
par	-2189
rop	-2190
▁lift	-2191
▁pans	-2192
▁rural	-2193
▁papers	-2194
▁propeller	-2195
▁chin	-2196
gon	-2197
▁these	-2198
▁brightly	-2199
▁shopping	-2200
▁strawber	-2201
▁pave	-2202
▁sculpt	-2203
▁turned	-2204
▁residential	-2205
▁hood	-2206
▁tiny	-2207
▁bush	-2208
▁nose	-2209
▁pr	-2210
▁sheets	-2211
▁pavement	-2212
▁heads	-2213
scap	-2214
▁smal	-2215
▁alongside	-2216
ible	-2217
unding	-2218
▁urinals	-2219
▁amer	-2220
hel	-2221
ier	-2222
itten	-2223
▁cond	-2224
▁juice	-2225
▁patio	-2226
▁paddle	-2227
▁personal	-2228
ray	-2229
▁tea	-2230
▁lamb	-2231
▁tank	-2232
▁soda	-2233
yclist	-2234
▁groom	-2235
▁snowboards	-2236
▁milk	-2237
▁meters	-2238
▁frosting	-2239
▁log	-2240
ield	-2241
▁happy	-2242
▁flight	-2243
▁stream	-2244
mo	-2245
bage	-2246
ital	-2247
▁rainy	-2248
▁remotes	-2249
▁cal	-2250
▁branches	-2251
▁touching	-2252
erly	-2253
▁egg	-2254
erial	-2255
ining	-2256
▁pres	-2257
▁gen	-2258
▁ducks	-2259
▁purse	-2260
▁smaller	-2261
▁directions	-2262
▁sem	-2263
▁laid	-2264
▁sized	-2265
▁parade	-2266
▁riders	-2267
▁cub	-2268
chup	-2269
▁ketchup	-2270
▁rear	-2271
▁itself	-2272
▁kicking	-2273
▁term	-2274
▁persons	-2275
▁displaying	-2276
ige	-2277
kin	-2278
▁eld	-2279
▁star	-2280
▁ladies	-2281
▁costume	-2282
ivid	-2283
▁loading	-2284
▁built	-2285
▁flags	-2286
▁lines	-2287
▁dresser	-2288
bile	-2289
▁exp	-2290
▁tent	-2291
▁officer	-2292
zer	-2293
▁mustard	-2294
▁terminal	-2295
▁leg	-2296
▁deep	-2297
▁only	-2298
▁noodles	-2299
aper	-2300
cked	-2301
▁char	-2302
▁mushrooms	-2303
▁beige	-2304
▁sausage	-2305
▁enclosed	-2306
▁decorations	-2307
▁ow	-2308
lies	-2309
▁stud	-2310
▁trays	-2311
▁waters	-2312
▁platter	-2313
▁glaz	-2314
▁sliding	-2315
▁utensils	-2316
▁american	-2317
▁bare	-2318
cra	-2319
▁uniforms	-2320
▁power	-2321
▁sailing	-2322
▁approaching	-2323
▁individ	-2324
ices	-2325
▁butter	-2326
▁shoe	-2327
▁pickup	-2328
▁elderly	-2329
ature	-2330
▁goes	-2331
▁pupp	-2332
ness	-2333
▁eye	-2334
▁throws	-2335
▁gas	-2336
▁course	-2337
▁sweater	-2338
ird	-2339
ster	-2340
▁rais	-2341
▁semi	-2342
▁uses	-2343
▁fried	-2344
▁leans	-2345
▁ornate	-2346
scape	-2347
▁pipe	-2348
▁collection	-2349
▁deli	-2350
mpting	-2351
▁vest	-2352
▁spect	-2353
▁greens	-2354
shirt	-2355
yclists	-2356
▁individual	-2357
▁ab	-2358
ushing	-2359
▁bride	-2360
▁hangs	-2361
▁posted	-2362
▁sim	-2363
▁mitt	-2364
▁most	-2365
▁laugh	-2366
▁sailbo	-2367
▁written	-2368
ior	-2369
▁liqu	-2370
▁paint	-2371
▁pulls	-2372
▁beverage	-2373
ory	-2374
▁growing	-2375
▁crosswalk	-2376
▁attempting	-2377
▁goats	-2378
▁indoor	-2379
▁transp	-2380
▁rolling	-2381
cted	-2382
▁cons	-2383
▁fake	-2384
▁stad	-2385
pas	-2386
allow	-2387
▁runs	-2388
▁toast	-2389
lled	-2390
craft	-2391
▁guit	-2392
▁neatly	-2393
▁stadium	-2394
ton	-2395
omot	-2396
▁climb	-2397
▁passes	-2398
▁jets	-2399
▁life	-2400
▁baskets	-2401
nel	-2402
▁if	-2403
ence	-2404
▁rows	-2405
▁na	-2406
case	-2407
▁locomot	-2408
ully	-2409
▁micro	-2410
▁surro	-2411
▁supplies	-2412
▁surrounding	-2413
gan	-2414
▁flor	-2415
▁potted	-2416
▁relaxing	-2417
▁3	-2418
als	-2419
cing	-2420
hill	-2421
▁1	-2422
ware	-2423
▁curled	-2424
▁bending	-2425
▁curtains	-2426
ging	-2427
▁lamps	-2428
▁roses	-2429
sted	-2430
▁pri	-2431
▁tops	-2432
▁roadway	-2433
▁shirtless	-2434
▁rope	-2435
ishing	-2436
▁missing	-2437
ues	-2438
▁tax	-2439
▁sold	-2440
▁how	-2441
▁duck	-2442
▁patter	-2443
▁airliner	-2444
▁tool	-2445
▁snack	-2446
▁wires	-2447
▁handle	-2448
▁siting	-2449
▁locomotive	-2450
▁por	-2451
rance	-2452
▁aircraft	-2453
bi	-2454
▁sticks	-2455
▁spectators	-2456
▁pet	-2457
▁muse	-2458
▁balls	-2459
▁sports	-2460
▁wheels	-2461
usk	-2462
▁da	-2463
▁ke	-2464
▁motion	-2465
▁museum	-2466
▁shadow	-2467
uffy	-2468
▁bell	-2469
▁glazed	-2470
▁frame	-2471
▁paved	-2472
▁packed	-2473
▁falling	-2474
▁dim	-2475
▁blow	-2476
▁tail	-2477
▁gentle	-2478
▁telephone	-2479
▁electronics	-2480
▁toothbrushes	-2481
dd	-2482
cake	-2483
▁speed	-2484
▁capt	-2485
▁bookshel	-2486
▁performs	-2487
▁ven	-2488
▁separ	-2489
▁celebr	-2490
▁practicing	-2491
lish	-2492
▁stool	-2493
▁wagon	-2494
▁guitar	-2495
▁arrange	-2496
▁without	-2497
▁ing	-2498
▁jeans	-2499
▁stunt	-2500
▁piled	-2501
▁floral	-2502
low	-2503
ares	-2504
▁shallow	-2505
▁aw	-2506
▁ang	-2507
▁fal	-2508
osite	-2509
▁remo	-2510
▁toss	-2511
▁section	-2512
▁sculpture	-2513
▁su	-2514
▁adj	-2515
▁tiles	-2516
bed	-2517
umer	-2518
▁trol	-2519
▁cycle	-2520
▁talks	-2521
▁selfie	-2522
▁advertise	-2523
▁arrangement	-2524
redi	-2525
▁frisbe	-2526
▁ingredi	-2527
▁mirrors	-2528
line	-2529
▁soft	-2530
▁delic	-2531
▁also	-2532
▁dead	-2533
▁numer	-2534
bow	-2535
ured	-2536
▁flip	-2537
▁pine	-2538
▁cupboard	-2539
▁formation	-2540
▁fir	-2541
▁fing	-2542
▁hors	-2543
▁garbage	-2544
▁shoulder	-2545
▁landscape	-2546
▁cop	-2547
▁hum	-2548
▁bank	-2549
▁fast	-2550
▁flown	-2551
▁hea	-2552
akers	-2553
▁cupcakes	-2554
time	-2555
▁paras	-2556
▁hotdogs	-2557
▁homemade	-2558
▁ingredients	-2559
▁advertisement	-2560
▁tong	-2561
▁toaster	-2562
cking	-2563
▁bucket	-2564
▁covering	-2565
▁pedestrian	-2566
▁selling	-2567
▁opposite	-2568
aged	-2569
▁you	-2570
▁spread	-2571
▁freezer	-2572
▁images	-2573
▁jetliner	-2574
▁skateboarders	-2575
ute	-2576
▁exh	-2577
asing	-2578
▁sniff	-2579
▁holder	-2580
bur	-2581
▁patch	-2582
▁fluffy	-2583
▁travels	-2584
▁buff	-2585
▁cones	-2586
▁tongue	-2587
▁objects	-2588
▁sprinkles	-2589
ste	-2590
abit	-2591
▁corn	-2592
▁pitching	-2593
▁inf	-2594
▁rus	-2595
eback	-2596
essor	-2597
▁hits	-2598
▁workers	-2599
▁horseback	-2600
▁foc	-2601
▁muff	-2602
ways	-2603
▁coll	-2604
▁fallen	-2605
▁downhill	-2606
▁puppy	-2607
cts	-2608
▁icing	-2609
▁mixed	-2610
▁newsp	-2611
▁asleep	-2612
▁marble	-2613
▁pushing	-2614
▁blankets	-2615
▁competition	-2616
ancing	-2617
▁headphones	-2618
▁strawberries	-2619
lit	-2620
▁sha	-2621
▁stuck	-2622
umin	-2623
▁habit	-2624
▁motorbi	-2625
▁counters	-2626
▁snowboarders	-2627
▁fin	-2628
▁faces	-2629
▁rolls	-2630
▁skirt	-2631
▁visible	-2632
▁pictured	-2633
▁aut	-2634
▁lab	-2635
▁stoplight	-2636
▁cer	-2637
▁mop	-2638
▁golden	-2639
▁entrance	-2640
▁checkered	-2641
".	-2642
ckey	-2643
▁tab	-2644
▁neon	-2645
▁whole	-2646
▁washing	-2647
▁blonde	-2648
▁string	-2649
▁gathering	-2650
▁rep	-2651
aming	-2652
▁shirts	-2653
▁slopes	-2654
▁balloon	-2655
▁climbing	-2656
ooks	-2657
▁item	-2658
▁organ	-2659
▁habitat	-2660
▁cargo	-2661
▁wears	-2662
▁frosted	-2663
fully	-2664
▁reaches	-2665
▁dump	-2666
▁featuring	-2667
▁photograp	-2668
ked	-2669
ooked	-2670
▁even	-2671
▁bit	-2672
bbing	-2673
ipped	-2674
▁leap	-2675
▁moves	-2676
▁range	-2677
▁officers	-2678
▁someones	-2679
▁stickers	-2680
▁delicious	-2681
▁transport	-2682
ondon	-2683
▁chil	-2684
▁magn	-2685
▁obser	-2686
oned	-2687
ising	-2688
▁shiny	-2689
▁pouring	-2690
ho	-2691
▁name	-2692
▁carries	-2693
lives	-2694
▁feeder	-2695
▁napkin	-2696
ished	-2697
▁covers	-2698
▁olives	-2699
▁microphone	-2700
asty	-2701
▁far	-2702
▁pige	-2703
▁furnis	-2704
▁london	-2705
ount	-2706
▁focus	-2707
▁great	-2708
oming	-2709
▁condim	-2710
▁batting	-2711
▁rainbow	-2712
▁interior	-2713
▁basketball	-2714
▁exten	-2715
▁first	-2716
▁loung	-2717
▁cookies	-2718
▁laughing	-2719
▁bul	-2720
▁tun	-2721
orter	-2722
▁backs	-2723
▁figur	-2724
▁haired	-2725
▁liquid	-2726
▁blowing	-2727
boy	-2728
ders	-2729
▁fan	-2730
▁wing	-2731
▁exhib	-2732
▁hills	-2733
ountain	-2734
▁gravel	-2735
▁hambur	-2736
py	-2737
iers	-2738
▁ahead	-2739
▁potato	-2740
▁fountain	-2741
▁desserts	-2742
dling	-2743
▁beef	-2744
▁enjoy	-2745
▁grilled	-2746
▁bou	-2747
▁fre	-2748
▁prin	-2749
▁thin	-2750
▁checking	-2751
▁cleaning	-2752
▁jar	-2753
▁bunk	-2754
▁teenag	-2755
▁miniature	-2756
ied	-2757
van	-2758
ental	-2759
▁indic	-2760
▁opening	-2761
aked	-2762
▁cust	-2763
▁fishing	-2764
▁lighting	-2765
▁cardboard	-2766
uzz	-2767
▁br	-2768
wood	-2769
▁aud	-2770
▁arch	-2771
▁saf	-2772
▁shape	-2773
▁comple	-2774
▁mobile	-2775
▁den	-2776
▁alley	-2777
▁controls	-2778
▁sug	-2779
▁rusty	-2780
rial	-2781
▁inst	-2782
▁shru	-2783
▁tools	-2784
▁turning	-2785
▁proc	-2786
▁trav	-2787
▁booth	-2788
▁marin	-2789
▁cowboy	-2790
▁trolley	-2791
ail	-2792
▁foil	-2793
▁tabby	-2794
▁displays	-2795
▁bookshelf	-2796
▁entertain	-2797
rot	-2798
ited	-2799
▁pin	-2800
▁sad	-2801
ience	-2802
▁goat	-2803
ugging	-2804
▁plaid	-2805
▁condiments	-2806
was	-2807
▁chees	-2808
▁muddy	-2809
▁newspaper	-2810
▁mac	-2811
▁vol	-2812
▁clay	-2813
▁pickle	-2814
▁catches	-2815
▁herself	-2816
▁located	-2817
▁flooring	-2818
▁nic	-2819
▁fold	-2820
▁spin	-2821
▁carts	-2822
▁seats	-2823
▁rusted	-2824
amic	-2825
icol	-2826
▁bra	-2827
▁odd	-2828
▁cano	-2829
▁cran	-2830
▁every	-2831
▁indust	-2832
▁exhibit	-2833
▁travelling	-2834
stri	-2835
ently	-2836
▁leag	-2837
erries	-2838
spital	-2839
▁depic	-2840
▁countertop	-2841
▁cere	-2842
▁unmade	-2843
▁hospital	-2844
▁av	-2845
▁multicol	-2846
▁ic	-2847
▁stir	-2848
▁gloves	-2849
▁forward	-2850
▁industrial	-2851
umm	-2852
anta	-2853
▁rad	-2854
▁sec	-2855
▁bent	-2856
▁size	-2857
▁spray	-2858
▁jockey	-2859
▁dot	-2860
ither	-2861
▁magaz	-2862
▁custom	-2863
▁meadow	-2864
thy	-2865
nect	-2866
▁onl	-2867
▁balc	-2868
▁cafe	-2869
▁lane	-2870
▁hallway	-2871
▁sus	-2872
▁matt	-2873
▁aerial	-2874
▁attire	-2875
▁either	-2876
▁ceramic	-2877
▁sharing	-2878
amp	-2879
men	-2880
mpt	-2881
most	-2882
eting	-2883
▁taxi	-2884
decker	-2885
▁crust	-2886
▁series	-2887
▁thrown	-2888
▁brushes	-2889
▁helping	-2890
▁steeple	-2891
▁pancakes	-2892
wh	-2893
▁groc	-2894
▁posed	-2895
▁comforter	-2896
▁nat	-2897
washer	-2898
▁stage	-2899
▁syste	-2900
▁driver	-2901
▁grapes	-2902
▁accessor	-2903
▁ill	-2904
brary	-2905
▁calm	-2906
▁neigh	-2907
▁words	-2908
▁league	-2909
▁library	-2910
▁accessories	-2911
▁uni	-2912
▁calf	-2913
▁nicely	-2914
▁freshly	-2915
▁following	-2916
▁dishwasher	-2917
erry	-2918
iled	-2919
▁bill	-2920
▁main	-2921
▁steak	-2922
▁biting	-2923
▁stares	-2924
here	-2925
▁seems	-2926
▁wings	-2927
▁multicolored	-2928
arf	-2929
▁lif	-2930
▁bagg	-2931
▁more	-2932
▁twin	-2933
▁cliff	-2934
attered	-2935
▁burger	-2936
▁sleeps	-2937
gged	-2938
town	-2939
▁gaz	-2940
▁own	-2941
▁para	-2942
▁chest	-2943
▁almost	-2944
▁father	-2945
▁mostly	-2946
▁chasing	-2947
▁statues	-2948
▁neighbor	-2949
▁watering	-2950
▁band	-2951
▁chili	-2952
▁santa	-2953
▁onlook	-2954
▁chinese	-2955
▁connect	-2956
▁heading	-2957
▁mattress	-2958
▁seagulls	-2959
▁countryside	-2960
hood	-2961
▁ado	-2962
▁jumb	-2963
▁picking	-2964
▁frisbees	-2965
▁paws	-2966
▁baking	-2967
▁sle	-2968
▁apron	-2969
▁coach	-2970
▁heart	-2971
▁tasty	-2972
▁railway	-2973
▁matching	-2974
gress	-2975
▁mans	-2976
▁grand	-2977
▁marina	-2978
▁bouquet	-2979
▁hugging	-2980
bble	-2981
work	-2982
▁dig	-2983
▁canop	-2984
▁teams	-2985
▁amongst	-2986
▁balcony	-2987
▁designed	-2988
▁tas	-2989
▁cush	-2990
▁iron	-2991
▁system	-2992
▁gentleman	-2993
ux	-2994
▁aband	-2995
▁horns	-2996
."	-2997
zen	-2998
▁ge	-2999
▁comb	-3000
▁funny	-3001
▁cushion	-3002
▁foreign	-3003
ctive	-3004
ility	-3005
▁read	-3006
▁suspen	-3007
▁straight	-3008
▁advertising	-3009
▁neighborhood	-3010
▁cru	-3011
stand	-3012
▁serv	-3013
▁arrow	-3014
▁tunnel	-3015
allic	-3016
ument	-3017
▁sugar	-3018
▁larger	-3019
ral	-3020
▁cuts	-3021
▁dryer	-3022
▁heavy	-3023
▁thick	-3024
▁bakery	-3025
▁sniffing	-3026
▁hamburger	-3027
rage	-3028
▁ribb	-3029
isting	-3030
▁jumbo	-3031
▁collar	-3032
▁baggage	-3033
▁chopped	-3034
▁convers	-3035
▁tractor	-3036
▁metallic	-3037
ker	-3038
▁cig	-3039
▁owner	-3040
▁buffet	-3041
▁trunks	-3042
▁leaving	-3043
▁sunlight	-3044
▁abandoned	-3045
oc	-3046
iet	-3047
ried	-3048
▁fans	-3049
▁hose	-3050
▁mask	-3051
▁vend	-3052
▁lemon	-3053
▁winds	-3054
▁prepare	-3055
ette	-3056
▁beg	-3057
▁story	-3058
▁works	-3059
▁typing	-3060
▁ori	-3061
▁poster	-3062
▁worker	-3063
sel	-3064
▁fed	-3065
▁fixt	-3066
▁move	-3067
▁attempt	-3068
▁chewing	-3069
▁natural	-3070
hers	-3071
▁tin	-3072
▁cool	-3073
▁sets	-3074
▁warm	-3075
▁resort	-3076
▁weather	-3077
▁motorbike	-3078
olf	-3079
ater	-3080
quets	-3081
▁dusk	-3082
▁dimly	-3083
▁folded	-3084
▁driveway	-3085
ano	-3086
use	-3087
▁tor	-3088
▁jers	-3089
▁rose	-3090
▁tries	-3091
▁busses	-3092
▁downtown	-3093
▁entertainment	-3094
ront	-3095
▁cold	-3096
▁pony	-3097
▁rails	-3098
▁audience	-3099
▁el	-3100
▁lim	-3101
▁mom	-3102
ption	-3103
▁unus	-3104
▁candy	-3105
▁castle	-3106
▁formal	-3107
▁framed	-3108
▁jersey	-3109
▁circular	-3110
▁hung	-3111
▁cases	-3112
gy	-3113
urf	-3114
ters	-3115
▁ris	-3116
▁mass	-3117
▁boots	-3118
▁strol	-3119
▁finger	-3120
▁turkey	-3121
▁bearded	-3122
▁motorcyclist	-3123
pl	-3124
met	-3125
▁pop	-3126
▁prote	-3127
▁devices	-3128
▁shining	-3129
▁progress	-3130
▁connected	-3131
▁onlookers	-3132
▁organized	-3133
▁lighthouse	-3134
aret	-3135
ival	-3136
▁bars	-3137
▁cigaret	-3138
▁cupcake	-3139
▁helmets	-3140
▁magnets	-3141
▁propped	-3142
▁hi	-3143
illa	-3144
▁sla	-3145
rable	-3146
▁cupboards	-3147
▁bay	-3148
▁tho	-3149
ightly	-3150
▁sailboat	-3151
▁son	-3152
▁bund	-3153
▁gran	-3154
▁guard	-3155
▁dispen	-3156
▁contents	-3157
ades	-3158
lower	-3159
app	-3160
▁obst	-3161
▁piano	-3162
▁canopy	-3163
▁hiding	-3164
▁tablet	-3165
▁evening	-3166
▁lounging	-3167
▁ring	-3168
▁upon	-3169
coming	-3170
▁level	-3171
▁quiet	-3172
▁follow	-3173
▁besides	-3174
▁tossing	-3175
▁racquets	-3176
▁swe	-3177
chair	-3178
dered	-3179
▁adjus	-3180
▁chefs	-3181
▁point	-3182
▁storage	-3183
▁adorable	-3184
▁backyard	-3185
▁fab	-3186
▁ple	-3187
▁unc	-3188
alley	-3189
▁males	-3190
▁porch	-3191
▁savan	-3192
▁scarf	-3193
zy	-3194
ggy	-3195
ives	-3196
▁desc	-3197
▁ears	-3198
▁golf	-3199
▁pump	-3200
▁shut	-3201
▁furry	-3202
▁kitty	-3203
▁bikers	-3204
▁obstac	-3205
▁parrot	-3206
▁reflected	-3207
▁flood	-3208
▁monkey	-3209
▁raised	-3210
▁grocery	-3211
▁illumin	-3212
▁belt	-3213
ipping	-3214
▁barrel	-3215
▁wilder	-3216
▁licking	-3217
od	-3218
vely	-3219
▁rec	-3220
▁oper	-3221
▁daytime	-3222
▁separate	-3223
▁silverware	-3224
tor	-3225
angu	-3226
vated	-3227
▁lambs	-3228
▁order	-3229
colored	-3230
▁spinach	-3231
▁hardwood	-3232
ord	-3233
mons	-3234
istic	-3235
▁inte	-3236
▁skiis	-3237
▁saying	-3238
▁present	-3239
▁scattered	-3240
ze	-3241
eled	-3242
▁heal	-3243
▁grazes	-3244
▁simple	-3245
▁savanna	-3246
▁warning	-3247
▁wilderness	-3248
▁lear	-3249
▁langu	-3250
▁collage	-3251
▁freight	-3252
▁football	-3253
▁4	-3254
tru	-3255
inds	-3256
▁awa	-3257
▁squat	-3258
▁fabric	-3259
▁unique	-3260
▁crosses	-3261
arp	-3262
med	-3263
▁ba	-3264
▁ath	-3265
ungle	-3266
▁word	-3267
▁music	-3268
▁produ	-3269
▁strip	-3270
▁cookie	-3271
▁lemons	-3272
▁shaking	-3273
▁smoking	-3274
▁balancing	-3275
ta	-3276
ests	-3277
▁bats	-3278
▁gogg	-3279
▁thumb	-3280
▁jungle	-3281
za	-3282
▁dust	-3283
▁fair	-3284
▁logs	-3285
▁bikini	-3286
▁clutter	-3287
▁comfort	-3288
▁magazine	-3289
▁stretching	-3290
ka	-3291
▁mel	-3292
▁tag	-3293
▁pean	-3294
▁peeking	-3295
ounge	-3296
▁pand	-3297
▁than	-3298
▁leafy	-3299
▁played	-3300
▁really	-3301
▁safety	-3302
▁goggles	-3303
▁screens	-3304
no	-3305
▁fauc	-3306
▁sizes	-3307
▁amount	-3308
▁friend	-3309
▁lounge	-3310
▁parach	-3311
▁delivery	-3312
▁tourists	-3313
▁decoration	-3314
where	-3315
▁talk	-3316
▁balan	-3317
▁moped	-3318
▁circle	-3319
▁drawers	-3320
▁numerous	-3321
selves	-3322
▁storm	-3323
▁ladder	-3324
▁peeled	-3325
▁suspended	-3326
ided	-3327
▁nuts	-3328
▁terra	-3329
▁volley	-3330
▁wo	-3331
ider	-3332
front	-3333
uddle	-3334
▁rece	-3335
▁cigarette	-3336
▁themselves	-3337
aker	-3338
▁sne	-3339
▁tus	-3340
▁cher	-3341
▁plan	-3342
▁skin	-3343
▁fixing	-3344
▁indoors	-3345
lers	-3346
▁ant	-3347
▁ador	-3348
▁tire	-3349
illing	-3350
▁ribbon	-3351
rib	-3352
anger	-3353
▁wash	-3354
ooters	-3355
▁pairs	-3356
▁fighting	-3357
pper	-3358
▁fest	-3359
▁need	-3360
▁crane	-3361
▁figure	-3362
▁pickles	-3363
▁classroom	-3364
▁courtyard	-3365
aks	-3366
its	-3367
dled	-3368
▁link	-3369
▁muffin	-3370
▁shorel	-3371
▁pigeons	-3372
▁balloons	-3373
▁complete	-3374
▁towering	-3375
▁bin	-3376
▁plaza	-3377
▁surfs	-3378
▁cereal	-3379
▁service	-3380
▁scooters	-3381
▁shoreline	-3382
hol	-3383
uri	-3384
▁reg	-3385
▁lean	-3386
orting	-3387
▁healthy	-3388
▁sticker	-3389
▁strange	-3390
▁furnished	-3391
▁cellphones	-3392
ilt	-3393
paste	-3394
▁care	-3395
▁goal	-3396
▁canoe	-3397
▁closet	-3398
▁students	-3399
▁motorcyclists	-3400
▁str	-3401
▁army	-3402
▁buns	-3403
▁load	-3404
▁soap	-3405
▁foggy	-3406
▁stops	-3407
▁rustic	-3408
▁process	-3409
▁beverages	-3410
▁consisting	-3411
▁toothpaste	-3412
▁photographs	-3413
pass	-3414
▁cone	-3415
▁wear	-3416
▁barri	-3417
▁tusks	-3418
resting	-3419
▁vegetation	-3420
gu	-3421
▁grin	-3422
▁knit	-3423
▁trim	-3424
▁shops	-3425
▁project	-3426
▁skyline	-3427
▁obstacle	-3428
ha	-3429
▁mall	-3430
▁shri	-3431
▁points	-3432
▁slightly	-3433
▁det	-3434
▁fat	-3435
▁too	-3436
▁comes	-3437
▁panda	-3438
covered	-3439
▁berries	-3440
▁oriental	-3441
▁softball	-3442
lines	-3443
▁arri	-3444
▁haul	-3445
▁spac	-3446
▁arena	-3447
▁speakers	-3448
hou	-3449
rat	-3450
unk	-3451
oney	-3452
▁lob	-3453
wards	-3454
▁burn	-3455
▁bedsp	-3456
▁noteb	-3457
▁shrimp	-3458
▁valley	-3459
▁designs	-3460
▁meeting	-3461
gie	-3462
▁act	-3463
▁bugg	-3464
▁puts	-3465
▁headed	-3466
▁silhou	-3467
▁pedestal	-3468
▁sideways	-3469
▁observing	-3470
ws	-3471
tie	-3472
▁pens	-3473
▁peace	-3474
▁wading	-3475
▁positioned	-3476
▁maj	-3477
▁vil	-3478
▁caul	-3479
▁eleg	-3480
▁slow	-3481
raying	-3482
▁fully	-3483
▁split	-3484
iflower	-3485
▁groups	-3486
▁bathing	-3487
▁crossed	-3488
▁slicing	-3489
▁village	-3490
▁fixtures	-3491
▁paddling	-3492
▁dispenser	-3493
▁approaches	-3494
alo	-3495
ret	-3496
val	-3497
▁eu	-3498
oose	-3499
▁may	-3500
▁conve	-3501
▁airlines	-3502
▁catchers	-3503
▁material	-3504
▁waterway	-3505
ama	-3506
toon	-3507
▁exc	-3508
▁beak	-3509
▁cans	-3510
▁keep	-3511
▁spla	-3512
▁relax	-3513
▁direct	-3514
▁vendor	-3515
▁grabbing	-3516
ls	-3517
▁min	-3518
▁wand	-3519
▁confe	-3520
▁snacks	-3521
▁elegant	-3522
▁granite	-3523
▁attempts	-3524
▁reflecting	-3525
ebo	-3526
ope	-3527
icle	-3528
▁lis	-3529
right	-3530
shing	-3531
▁euro	-3532
▁kept	-3533
▁will	-3534
▁reach	-3535
▁faucet	-3536
▁classic	-3537
▁leaping	-3538
▁teenager	-3539
▁illuminated	-3540
att	-3541
▁fol	-3542
rence	-3543
▁ware	-3544
▁seven	-3545
▁caught	-3546
▁waving	-3547
▁monument	-3548
▁sailboats	-3549
▁cauliflower	-3550
mer	-3551
▁any	-3552
▁cuc	-3553
▁alco	-3554
▁bald	-3555
▁slee	-3556
▁colle	-3557
▁forks	-3558
▁cheesy	-3559
▁cucumb	-3560
▁repair	-3561
▁trough	-3562
▁lighted	-3563
▁numbers	-3564
▁bedspread	-3565
icop	-3566
▁desks	-3567
▁layer	-3568
▁knives	-3569
▁drawing	-3570
▁helicop	-3571
▁patterned	-3572
▁conversation	-3573
ined	-3574
▁wre	-3575
▁blur	-3576
▁trop	-3577
▁goods	-3578
▁heard	-3579
▁tight	-3580
▁peanut	-3581
▁flooded	-3582
▁unusual	-3583
af	-3584
ift	-3585
▁bor	-3586
▁kay	-3587
▁diam	-3588
▁exam	-3589
▁raft	-3590
▁seas	-3591
urious	-3592
▁leads	-3593
▁married	-3594
▁had	-3595
white	-3596
▁clus	-3597
▁coast	-3598
▁button	-3599
▁cobble	-3600
▁europe	-3601
▁herding	-3602
▁es	-3603
▁kis	-3604
▁mov	-3605
▁much	-3606
▁tags	-3607
▁second	-3608
▁diamond	-3609
▁interesting	-3610
▁,	-3611
▁sup	-3612
▁deer	-3613
▁skater	-3614
▁spoons	-3615
▁greenery	-3616
▁tropical	-3617
boat	-3618
cast	-3619
ific	-3620
▁basin	-3621
▁dried	-3622
▁ostri	-3623
▁within	-3624
▁freeway	-3625
▁terrain	-3626
▁strapped	-3627
▁individuals	-3628
▁fry	-3629
▁ins	-3630
▁owl	-3631
▁pus	-3632
cloth	-3633
ctory	-3634
▁keys	-3635
▁recor	-3636
▁portra	-3637
▁helicopter	-3638
▁nightstand	-3639
▁bad	-3640
▁hip	-3641
▁unf	-3642
ities	-3643
▁conso	-3644
▁piles	-3645
▁quilt	-3646
▁roman	-3647
▁turns	-3648
▁boogie	-3649
▁tasting	-3650
▁stopping	-3651
kins	-3652
labor	-3653
dition	-3654
ughter	-3655
▁autom	-3656
▁eight	-3657
angular	-3658
ination	-3659
▁convey	-3660
▁doubles	-3661
▁massive	-3662
▁pattern	-3663
▁roaming	-3664
▁tablecloth	-3665
▁celebrating	-3666
pid	-3667
▁now	-3668
▁atten	-3669
▁compan	-3670
▁stable	-3671
▁cartoon	-3672
▁upright	-3673
▁costumes	-3674
fts	-3675
▁eas	-3676
▁poss	-3677
▁site	-3678
▁canal	-3679
▁ornam	-3680
▁listen	-3681
▁utility	-3682
▁cellular	-3683
▁overpass	-3684
▁soldiers	-3685
▁spraying	-3686
▁windsurf	-3687
▁conference	-3688
▁transportation	-3689
gging	-3690
▁human	-3691
▁airbor	-3692
▁garnis	-3693
▁shades	-3694
▁english	-3695
▁factory	-3696
▁pineapp	-3697
▁figurine	-3698
▁photographer	-3699
ole	-3700
dles	-3701
▁blu	-3702
▁peel	-3703
▁recl	-3704
▁buggy	-3705
▁tents	-3706
▁drying	-3707
▁parent	-3708
▁stance	-3709
▁indicating	-3710
▁5	-3711
uld	-3712
▁mi	-3713
▁div	-3714
▁pug	-3715
▁come	-3716
▁prot	-3717
▁gives	-3718
▁polka	-3719
▁histor	-3720
▁handing	-3721
▁wrapper	-3722
▁language	-3723
apan	-3724
drop	-3725
▁eag	-3726
▁map	-3727
▁rol	-3728
oored	-3729
▁knee	-3730
▁prov	-3731
▁tape	-3732
▁text	-3733
▁waff	-3734
▁depot	-3735
▁japan	-3736
▁print	-3737
▁console	-3738
▁elevated	-3739
▁bis	-3740
▁dec	-3741
▁cree	-3742
▁unlo	-3743
▁bagel	-3744
▁drawer	-3745
▁parasa	-3746
▁adjusting	-3747
▁hal	-3748
▁rect	-3749
▁tiss	-3750
▁brief	-3751
▁curve	-3752
▁posts	-3753
▁weird	-3754
▁elabor	-3755
▁hooked	-3756
▁boarders	-3757
▁grinding	-3758
▁notebook	-3759
vi	-3760
bag	-3761
ably	-3762
hand	-3763
▁fix	-3764
▁brit	-3765
▁butt	-3766
▁crib	-3767
▁wake	-3768
sticks	-3769
▁ident	-3770
▁thing	-3771
▁themed	-3772
▁winding	-3773
▁airborne	-3774
▁extended	-3775
▁learning	-3776
pers	-3777
rome	-3778
▁tex	-3779
▁jars	-3780
▁circus	-3781
▁mashed	-3782
▁cleaned	-3783
▁backdrop	-3784
▁portrait	-3785
▁speaking	-3786
▁compartment	-3787
ico	-3788
idy	-3789
urs	-3790
ared	-3791
▁blood	-3792
▁canad	-3793
▁geese	-3794
▁naked	-3795
▁hangar	-3796
▁alcohol	-3797
▁include	-3798
▁products	-3799
▁savannah	-3800
▁parachute	-3801
ky	-3802
ula	-3803
ened	-3804
eter	-3805
ised	-3806
▁dro	-3807
▁cloud	-3808
▁float	-3809
▁grown	-3810
▁oppon	-3811
▁babies	-3812
▁wicker	-3813
▁drivers	-3814
▁teenage	-3815
sa	-3816
alt	-3817
ert	-3818
▁tim	-3819
oping	-3820
▁dest	-3821
▁love	-3822
▁begin	-3823
▁frying	-3824
▁rowing	-3825
▁kissing	-3826
▁signals	-3827
▁toasted	-3828
▁overcast	-3829
▁windowsill	-3830
suit	-3831
▁flav	-3832
vering	-3833
▁carry	-3834
▁cathe	-3835
▁instr	-3836
▁third	-3837
ditional	-3838
▁farmers	-3839
▁jackets	-3840
▁pathway	-3841
▁daughter	-3842
▁festival	-3843
▁practice	-3844
▁headboard	-3845
den	-3846
▁imp	-3847
▁amid	-3848
▁china	-3849
▁metro	-3850
▁snugg	-3851
▁world	-3852
▁youth	-3853
▁thumbs	-3854
▁cathedr	-3855
▁chained	-3856
▁seating	-3857
▁customers	-3858
▁squatting	-3859
▁u	-3860
▁ip	-3861
▁tig	-3862
stone	-3863
ugged	-3864
▁trio	-3865
ending	-3866
▁digital	-3867
▁hauling	-3868
▁message	-3869
▁stroller	-3870
▁billboard	-3871
▁cathedral	-3872
▁figurines	-3873
ode	-3874
view	-3875
▁tux	-3876
andel	-3877
▁skil	-3878
▁such	-3879
▁blueb	-3880
▁extra	-3881
▁photographed	-3882
des	-3883
▁emb	-3884
▁lie	-3885
▁pod	-3886
▁asph	-3887
▁thre	-3888
ational	-3889
▁carous	-3890
▁uncooked	-3891
▁backpacks	-3892
▁depicting	-3893
life	-3894
▁worn	-3895
▁afric	-3896
▁crack	-3897
▁meats	-3898
▁sails	-3899
▁british	-3900
▁package	-3901
▁artistic	-3902
ipp	-3903
scra	-3904
▁rot	-3905
▁sol	-3906
▁note	-3907
▁gravy	-3908
▁medium	-3909
▁plains	-3910
▁scenic	-3911
▁towing	-3912
▁african	-3913
▁special	-3914
▁sneakers	-3915
cy	-3916
ude	-3917
▁id	-3918
▁stom	-3919
▁barbe	-3920
▁knees	-3921
▁pears	-3922
▁racks	-3923
▁appear	-3924
▁chrome	-3925
▁roller	-3926
▁shines	-3927
▁asphalt	-3928
▁attract	-3929
▁commode	-3930
▁skyscra	-3931
▁carousel	-3932
▁staircase	-3933
ops	-3934
▁disk	-3935
▁barbed	-3936
▁kettle	-3937
▁closely	-3938
▁placing	-3939
▁shuttle	-3940
▁conveyor	-3941
▁returning	-3942
▁warehouse	-3943
▁ger	-3944
▁pig	-3945
▁call	-3946
▁chan	-3947
▁hind	-3948
▁major	-3949
▁cluster	-3950
▁powdered	-3951
▁competing	-3952
▁strawberry	-3953
rup	-3954
urt	-3955
ient	-3956
ills	-3957
▁bean	-3958
▁cent	-3959
▁grab	-3960
▁tube	-3961
▁cruise	-3962
▁marked	-3963
▁stalls	-3964
▁adorned	-3965
▁planter	-3966
▁printer	-3967
▁stomach	-3968
▁keyboards	-3969
▁chopsticks	-3970
ai	-3971
ains	-3972
otic	-3973
▁rob	-3974
truck	-3975
▁camp	-3976
▁conf	-3977
▁emer	-3978
▁ones	-3979
▁cable	-3980
▁cooks	-3981
▁force	-3982
▁lobby	-3983
▁press	-3984
▁donkey	-3985
▁places	-3986
▁stripes	-3987
▁tourist	-3988
▁deserted	-3989
▁directly	-3990
▁selection	-3991
elly	-3992
▁coo	-3993
ately	-3994
attoo	-3995
deled	-3996
ution	-3997
▁anch	-3998
▁foli	-3999
▁trip	-4000
▁inspe	-4001
▁calico	-4002
▁crates	-4003
▁shrubs	-4004
▁towers	-4005
▁muffins	-4006
▁rocking	-4007
▁roadside	-4008
▁electrical	-4009
amb	-4010
gen	-4011
▁gy	-4012
ells	-4013
osed	-4014
▁pay	-4015
▁coke	-4016
▁memb	-4017
▁were	-4018
▁newly	-4019
▁subur	-4020
▁suite	-4021
▁super	-4022
▁pocket	-4023
▁tattoo	-4024
▁foliage	-4025
▁soldier	-4026
▁entering	-4027
▁stationary	-4028
ath	-4029
▁ki	-4030
▁sat	-4031
▁sau	-4032
▁help	-4033
▁mixt	-4034
▁rubb	-4035
▁when	-4036
▁crate	-4037
▁extre	-4038
▁macar	-4039
▁slide	-4040
▁sweet	-4041
▁trave	-4042
▁potter	-4043
▁puddle	-4044
▁stools	-4045
▁stores	-4046
▁barrier	-4047
▁curious	-4048
▁ostrich	-4049
▁bookcase	-4050
▁opponent	-4051
▁boardwalk	-4052
▁stretched	-4053
▁raw	-4054
▁suv	-4055
▁tee	-4056
▁yog	-4057
ively	-4058
uched	-4059
▁dual	-4060
▁gour	-4061
▁meas	-4062
▁array	-4063
▁names	-4064
▁midair	-4065
▁podium	-4066
▁archite	-4067
▁cubicle	-4068
▁mixture	-4069
▁european	-4070
▁interact	-4071
▁stepping	-4072
▁crouching	-4073
▁paintings	-4074
▁6	-4075
ummy	-4076
ments	-4077
▁logo	-4078
▁diner	-4079
▁rings	-4080
▁scrat	-4081
▁sharp	-4082
▁tiger	-4083
▁frozen	-4084
▁shapes	-4085
▁harness	-4086
▁balances	-4087
▁intently	-4088
▁wildlife	-4089
▁shoulders	-4090
▁wheelchair	-4091
ccup	-4092
▁cud	-4093
▁fog	-4094
▁gun	-4095
▁tro	-4096
▁dash	-4097
▁envi	-4098
▁loaf	-4099
▁mane	-4100
▁unit	-4101
father	-4102
▁dusty	-4103
▁ferry	-4104
▁necks	-4105
▁checks	-4106
▁runner	-4107
▁competit	-4108
▁dressing	-4109
▁listening	-4110
▁silhouette	-4111
▁streetlight	-4112
alle	-4113
rong	-4114
▁ble	-4115
▁vac	-4116
▁nest	-4117
▁priv	-4118
▁antel	-4119
▁radio	-4120
ronment	-4121
▁infant	-4122
▁leaned	-4123
▁maroon	-4124
▁partly	-4125
▁artwork	-4126
▁chandel	-4127
▁macaroni	-4128
▁bicyclist	-4129
▁uniformed	-4130
▁environment	-4131
cue	-4132
amas	-4133
ions	-4134
lain	-4135
▁limb	-4136
▁thru	-4137
▁feeds	-4138
▁tuxed	-4139
▁tagged	-4140
▁express	-4141
▁outfits	-4142
▁parasol	-4143
▁rubbing	-4144
▁texting	-4145
▁operating	-4146
▁policeman	-4147
▁grandfather	-4148
▁rectangular	-4149
ou	-4150
ams	-4151
rit	-4152
cept	-4153
like	-4154
▁dip	-4155
▁dug	-4156
▁emp	-4157
▁nur	-4158
▁paj	-4159
▁claim	-4160
▁stump	-4161
▁syrup	-4162
▁cherry	-4163
▁indian	-4164
▁blurred	-4165
▁spotted	-4166
▁spacious	-4167
▁starting	-4168
ino	-4169
utes	-4170
▁def	-4171
▁mes	-4172
▁try	-4173
atula	-4174
▁bump	-4175
▁angle	-4176
▁apart	-4177
▁holid	-4178
▁lodge	-4179
▁shots	-4180
▁touch	-4181
▁blinds	-4182
▁floats	-4183
▁inform	-4184
▁dipping	-4185
▁excited	-4186
▁peering	-4187
▁signage	-4188
▁skillet	-4189
▁spatula	-4190
▁elaborate	-4191
▁refrigerators	-4192
car	-4193
ots	-4194
▁ox	-4195
acks	-4196
▁pies	-4197
ically	-4198
▁craft	-4199
▁needs	-4200
▁curved	-4201
▁serves	-4202
▁tissue	-4203
▁caption	-4204
▁figures	-4205
▁speeding	-4206
▁grassland	-4207
▁stretches	-4208
ye	-4209
▁gym	-4210
▁kno	-4211
amboo	-4212
▁quick	-4213
▁athlet	-4214
▁bamboo	-4215
▁hitter	-4216
▁skinny	-4217
▁stacks	-4218
▁fingers	-4219
▁flipping	-4220
▁remodeled	-4221
▁sprinkled	-4222
▁teenagers	-4223
▁cobblestone	-4224
emb	-4225
lat	-4226
▁si	-4227
ales	-4228
ibly	-4229
▁hut	-4230
▁ran	-4231
field	-4232
▁else	-4233
▁tuck	-4234
▁unri	-4235
celain	-4236
▁demon	-4237
▁movie	-4238
▁ships	-4239
▁shrubb	-4240
▁porcelain	-4241
▁bicyclists	-4242
fall	-4243
▁menu	-4244
▁sauc	-4245
▁tidy	-4246
acting	-4247
▁dozen	-4248
▁sofas	-4249
▁start	-4250
▁weeds	-4251
inished	-4252
▁letter	-4253
▁pajamas	-4254
▁younger	-4255
▁pineapple	-4256
▁somewhere	-4257
mar	-4258
icip	-4259
▁dam	-4260
▁ram	-4261
▁san	-4262
ckets	-4263
▁junk	-4264
▁rode	-4265
▁alarm	-4266
▁biker	-4267
▁parts	-4268
▁plush	-4269
▁entree	-4270
▁skiier	-4271
▁stunts	-4272
▁bowling	-4273
▁engaged	-4274
▁clearing	-4275
▁japanese	-4276
▁mountainous	-4277
orn	-4278
umn	-4279
▁led	-4280
plane	-4281
▁cast	-4282
▁done	-4283
▁jelly	-4284
▁spots	-4285
▁rubber	-4286
▁washer	-4287
▁glowing	-4288
▁gourmet	-4289
▁holiday	-4290
▁appliance	-4291
▁carriages	-4292
▁identical	-4293
▁'	-4294
▁ave	-4295
▁ton	-4296
▁file	-4297
▁hear	-4298
▁jeep	-4299
▁pork	-4300
▁real	-4301
▁clown	-4302
▁rough	-4303
▁bigger	-4304
▁farmer	-4305
▁treats	-4306
▁viewed	-4307
▁balance	-4308
▁awaiting	-4309
▁shrubbery	-4310
▁furnishing	-4311
▁traditional	-4312
▁esc	-4313
▁goo	-4314
obile	-4315
▁aven	-4316
▁mail	-4317
▁motel	-4318
▁shred	-4319
▁barren	-4320
▁german	-4321
▁handic	-4322
▁united	-4323
▁cooling	-4324
▁suburban	-4325
▁unfinished	-4326
po	-4327
ipe	-4328
off	-4329
ora	-4330
ushi	-4331
▁pil	-4332
▁iced	-4333
▁rabb	-4334
▁ottom	-4335
fashion	-4336
▁banner	-4337
▁gaming	-4338
▁pigeon	-4339
▁dancing	-4340
▁pitched	-4341
▁automobile	-4342
fo	-4343
ma	-4344
cuit	-4345
pris	-4346
unch	-4347
▁fer	-4348
▁haw	-4349
aging	-4350
ilted	-4351
ishes	-4352
▁king	-4353
▁penc	-4354
▁reno	-4355
▁tech	-4356
▁york	-4357
▁bulls	-4358
▁bunny	-4359
▁sushi	-4360
▁tying	-4361
▁avenue	-4362
▁celery	-4363
▁cutter	-4364
▁moored	-4365
▁upward	-4366
▁altered	-4367
▁engines	-4368
fashioned	-4369
▁chickens	-4370
▁separated	-4371
izon	-4372
▁doz	-4373
▁fit	-4374
▁lime	-4375
▁navy	-4376
▁mural	-4377
▁notes	-4378
▁pengu	-4379
▁plent	-4380
▁swung	-4381
▁contra	-4382
▁hiking	-4383
▁lining	-4384
▁handbag	-4385
▁protest	-4386
▁viewing	-4387
▁equipped	-4388
▁stripped	-4389
▁attractive	-4390
▁chandelier	-4391
alled	-4392
▁cubs	-4393
▁shag	-4394
▁summ	-4395
shield	-4396
▁eagle	-4397
▁maker	-4398
▁ovens	-4399
▁silly	-4400
▁towed	-4401
▁treat	-4402
▁garlic	-4403
▁biscuit	-4404
▁buttons	-4405
▁hipster	-4406
▁lifting	-4407
▁crackers	-4408
▁possibly	-4409
▁teaching	-4410
het	-4411
yed	-4412
uzzy	-4413
▁bid	-4414
▁cot	-4415
▁cock	-4416
▁lead	-4417
▁pads	-4418
▁fuzzy	-4419
▁local	-4420
▁opens	-4421
▁wallp	-4422
▁hoodie	-4423
▁locked	-4424
▁walled	-4425
▁windshield	-4426
rie	-4427
park	-4428
tern	-4429
▁hun	-4430
▁mer	-4431
▁que	-4432
▁mean	-4433
▁peas	-4434
▁roas	-4435
▁tram	-4436
▁wool	-4437
▁bends	-4438
▁falls	-4439
▁outst	-4440
▁steer	-4441
▁blocks	-4442
▁horned	-4443
▁yogurt	-4444
▁compact	-4445
▁company	-4446
▁handles	-4447
▁happily	-4448
▁horizon	-4449
▁letting	-4450
▁necktie	-4451
▁breaking	-4452
▁forested	-4453
▁outfield	-4454
een	-4455
ugs	-4456
aves	-4457
foot	-4458
noon	-4459
▁adm	-4460
▁fle	-4461
dless	-4462
imate	-4463
uments	-4464
▁attent	-4465
▁retrie	-4466
▁shaggy	-4467
▁tuxedo	-4468
▁grouped	-4469
▁letters	-4470
▁whipped	-4471
▁afternoon	-4472
flow	-4473
onal	-4474
▁dun	-4475
▁fut	-4476
▁rim	-4477
▁aged	-4478
▁foam	-4479
▁champ	-4480
▁crest	-4481
▁bullet	-4482
▁ottoman	-4483
▁ridding	-4484
▁blocking	-4485
▁crouched	-4486
▁pitchers	-4487
▁unloading	-4488
▁waterfall	-4489
▁playground	-4490
▁furnishings	-4491
▁interacting	-4492
▁windsurfing	-4493
ooth	-4494
▁pir	-4495
acent	-4496
ually	-4497
▁avoc	-4498
▁pane	-4499
▁situ	-4500
uminum	-4501
▁delta	-4502
▁grizz	-4503
▁money	-4504
vention	-4505
▁called	-4506
▁dozens	-4507
▁hanger	-4508
▁poised	-4509
▁slides	-4510
▁stripe	-4511
▁butterf	-4512
▁surpris	-4513
▁outstret	-4514
▁toiletries	-4515
box	-4516
kers	-4517
andal	-4518
ivity	-4519
▁tort	-4520
▁wrap	-4521
ulated	-4522
▁coats	-4523
▁scale	-4524
▁visit	-4525
▁avocad	-4526
▁guests	-4527
▁females	-4528
▁humming	-4529
▁portion	-4530
▁stained	-4531
▁watched	-4532
▁adjacent	-4533
▁aluminum	-4534
▁sausages	-4535
law	-4536
▁hud	-4537
▁ipod	-4538
▁spar	-4539
leslaw	-4540
▁dolls	-4541
▁emplo	-4542
▁roast	-4543
▁theme	-4544
flowers	-4545
▁belong	-4546
▁halves	-4547
▁plenty	-4548
▁preten	-4549
▁unripe	-4550
▁dinning	-4551
▁pointed	-4552
▁powered	-4553
▁strings	-4554
▁coleslaw	-4555
▁feathers	-4556
▁followed	-4557
▁firetruck	-4558
▁parasailing	-4559
▁outstretched	-4560
gn	-4561
ua	-4562
bee	-4563
the	-4564
wear	-4565
▁vic	-4566
acter	-4567
thing	-4568
▁carn	-4569
▁cong	-4570
▁gall	-4571
▁page	-4572
▁shed	-4573
▁leave	-4574
▁cycles	-4575
▁vandal	-4576
▁caution	-4577
▁distant	-4578
▁flatbed	-4579
▁gliding	-4580
▁perches	-4581
▁pottery	-4582
▁provide	-4583
▁directing	-4584
▁7	-4585
ics	-4586
pan	-4587
▁rh	-4588
temp	-4589
yond	-4590
▁oil	-4591
izing	-4592
osing	-4593
▁cola	-4594
▁sled	-4595
▁cards	-4596
▁manne	-4597
▁panel	-4598
▁setup	-4599
▁swans	-4600
latable	-4601
▁beyond	-4602
▁bricks	-4603
▁diving	-4604
▁driven	-4605
▁dugout	-4606
▁mixing	-4607
▁pillar	-4608
▁poking	-4609
▁relish	-4610
▁contemp	-4611
▁folding	-4612
▁grasses	-4613
▁peeling	-4614
▁character	-4615
▁convention	-4616
▁inflatable	-4617
og	-4618
ache	-4619
alks	-4620
ilar	-4621
▁asc	-4622
▁cit	-4623
▁ult	-4624
▁wax	-4625
green	-4626
▁news	-4627
▁spro	-4628
▁stew	-4629
▁aspar	-4630
▁sleek	-4631
▁saddle	-4632
▁skates	-4633
▁bedding	-4634
▁cabbage	-4635
▁mannequ	-4636
▁members	-4637
▁similar	-4638
▁flowered	-4639
▁wandering	-4640
▁sweatshirt	-4641
▁bb	-4642
tled	-4643
vily	-4644
▁club	-4645
▁cops	-4646
▁pets	-4647
▁robe	-4648
▁swan	-4649
▁vast	-4650
▁zone	-4651
▁embra	-4652
▁heels	-4653
▁hilly	-4654
▁holes	-4655
▁pipes	-4656
▁socks	-4657
▁rabbit	-4658
▁cyclist	-4659
▁heavily	-4660
▁quickly	-4661
▁antelope	-4662
▁crouches	-4663
▁steering	-4664
▁backwards	-4665
▁cucumbers	-4666
▁comfortable	-4667
iner	-4668
▁pal	-4669
▁pel	-4670
▁tug	-4671
▁bidet	-4672
▁could	-4673
▁gazel	-4674
▁herbs	-4675
▁roads	-4676
berries	-4677
▁cooler	-4678
▁sewing	-4679
▁smooth	-4680
▁plugged	-4681
▁private	-4682
▁speaker	-4683
▁measuring	-4684
bu	-4685
aff	-4686
ern	-4687
ien	-4688
mel	-4689
tra	-4690
▁tr	-4691
agus	-4692
arth	-4693
book	-4694
mbol	-4695
vest	-4696
▁dom	-4697
▁kiw	-4698
▁tet	-4699
inger	-4700
▁cord	-4701
▁ever	-4702
▁miss	-4703
▁refe	-4704
▁span	-4705
achers	-4706
▁bites	-4707
▁ramps	-4708
▁route	-4709
▁descri	-4710
▁mantle	-4711
▁nearly	-4712
▁symbol	-4713
▁accents	-4714
▁complet	-4715
▁raising	-4716
▁stocked	-4717
▁wheeled	-4718
▁anchored	-4719
▁location	-4720
▁situated	-4721
▁tortilla	-4722
▁asparagus	-4723
▁vandalized	-4724
con	-4725
str	-4726
▁hom	-4727
count	-4728
illed	-4729
▁scru	-4730
▁slab	-4731
▁leaps	-4732
▁marsh	-4733
▁state	-4734
▁times	-4735
▁consum	-4736
▁decked	-4737
▁kneels	-4738
▁liquor	-4739
▁melted	-4740
▁rolled	-4741
▁carrier	-4742
▁champag	-4743
▁grizzly	-4744
▁barefoot	-4745
▁chopping	-4746
▁numerals	-4747
▁portable	-4748
▁storefront	-4749
ana	-4750
ased	-4751
iced	-4752
▁nuzz	-4753
▁appet	-4754
▁broad	-4755
▁assemb	-4756
▁capped	-4757
▁carved	-4758
▁corral	-4759
▁croiss	-4760
▁discus	-4761
▁social	-4762
▁sparse	-4763
▁unable	-4764
▁airline	-4765
▁current	-4766
▁knitted	-4767
▁demonstr	-4768
▁champagne	-4769
▁sculptures	-4770
▁interactive	-4771
band	-4772
bird	-4773
▁bbq	-4774
▁nes	-4775
▁pon	-4776
▁sco	-4777
▁ske	-4778
▁tul	-4779
▁bend	-4780
▁boun	-4781
▁brus	-4782
▁exit	-4783
▁rams	-4784
▁reve	-4785
▁helps	-4786
▁midst	-4787
▁overs	-4788
▁share	-4789
▁thats	-4790
▁threw	-4791
▁casser	-4792
▁mopeds	-4793
▁smiley	-4794
▁squash	-4795
▁posters	-4796
▁cyclists	-4797
▁smelling	-4798
▁travelers	-4799
hua	-4800
yle	-4801
chan	-4802
lete	-4803
rest	-4804
▁jam	-4805
▁sex	-4806
▁ital	-4807
▁lego	-4808
▁stem	-4809
▁temp	-4810
▁areas	-4811
▁creek	-4812
▁grape	-4813
▁kayak	-4814
▁price	-4815
▁those	-4816
country	-4817
▁iphone	-4818
▁powder	-4819
▁shaded	-4820
▁though	-4821
▁layered	-4822
▁finished	-4823
▁dashboard	-4824
▁materials	-4825
▁wallpaper	-4826
▁smartphone	-4827
▁information	-4828
ids	-4829
oms	-4830
▁19	-4831
▁lon	-4832
amese	-4833
iring	-4834
orary	-4835
▁dorm	-4836
▁oval	-4837
▁polo	-4838
▁rasp	-4839
▁spre	-4840
▁cages	-4841
▁meals	-4842
▁mixer	-4843
▁shake	-4844
▁plated	-4845
▁strike	-4846
▁stating	-4847
▁tending	-4848
▁airfield	-4849
▁incoming	-4850
▁training	-4851
▁motorbikes	-4852
▁washington	-4853
▁instruments	-4854
ury	-4855
ower	-4856
▁rel	-4857
aghet	-4858
dress	-4859
▁coca	-4860
▁whit	-4861
▁brand	-4862
▁crown	-4863
▁crumb	-4864
▁faced	-4865
▁prepar	-4866
▁pushed	-4867
▁slowly	-4868
▁studio	-4869
▁tucked	-4870
▁biplane	-4871
▁medical	-4872
▁spaghet	-4873
▁takeoff	-4874
▁meatball	-4875
▁casserole	-4876
▁surprised	-4877
▁completely	-4878
▁protective	-4879
can	-4880
vet	-4881
ense	-4882
▁dad	-4883
▁las	-4884
▁mex	-4885
▁mor	-4886
▁won	-4887
eaten	-4888
gency	-4889
▁mugs	-4890
▁perf	-4891
▁sour	-4892
▁basil	-4893
▁blind	-4894
▁cords	-4895
▁rapid	-4896
▁croche	-4897
▁pirate	-4898
▁saucer	-4899
▁summer	-4900
▁filling	-4901
▁huddled	-4902
▁labeled	-4903
▁serious	-4904
▁touches	-4905
▁beginning	-4906
▁briefcase	-4907
▁emergency	-4908
▁skatepark	-4909
▁spaghetti	-4910
▁cheesecake	-4911
▁colorfully	-4912
▁celebration	-4913
vd	-4914
yl	-4915
lymp	-4916
angle	-4917
▁plow	-4918
anging	-4919
▁caged	-4920
▁lower	-4921
▁maneu	-4922
▁olymp	-4923
▁rodeo	-4924
▁squir	-4925
▁stare	-4926
▁stems	-4927
▁stock	-4928
▁canoes	-4929
▁dragon	-4930
▁lonely	-4931
▁soaked	-4932
▁veggie	-4933
▁college	-4934
▁dresses	-4935
▁flaming	-4936
▁paralle	-4937
▁soaring	-4938
▁waffles	-4939
▁mustache	-4940
▁watermel	-4941
▁combination	-4942
arn	-4943
end	-4944
aped	-4945
▁ges	-4946
▁rise	-4947
▁accom	-4948
▁allow	-4949
▁angry	-4950
▁perch	-4951
▁taped	-4952
▁tires	-4953
▁upper	-4954
▁landed	-4955
▁athlete	-4956
▁napkins	-4957
▁nothing	-4958
▁hydrants	-4959
▁blueberries	-4960
▁comfortably	-4961
▁instruction	-4962
ki	-4963
ouf	-4964
▁er	-4965
▁ol	-4966
rely	-4967
sters	-4968
▁crew	-4969
▁rele	-4970
▁border	-4971
▁conver	-4972
▁fields	-4973
▁barrels	-4974
▁shaving	-4975
▁singing	-4976
▁opposing	-4977
▁parallel	-4978
▁installed	-4979
▁scratching	-4980
▁volleyball	-4981
▁presentation	-4982
du	-4983
▁amb	-4984
▁non	-4985
colli	-4986
▁vert	-4987
▁yarn	-4988
acters	-4989
▁limit	-4990
▁queen	-4991
igating	-4992
▁bushel	-4993
▁camouf	-4994
▁chains	-4995
▁sauces	-4996
▁tiered	-4997
▁tulips	-4998
▁buffalo	-4999
▁camping	-5000
▁clearly	-5001
▁gesture	-5002
▁stretch	-5003
▁brocolli	-5004
▁canadian	-5005
▁featured	-5006
▁machines	-5007
▁oncoming	-5008
▁bleachers	-5009
▁cabinetry	-5010
▁nighttime	-5011
▁characters	-5012
▁directional	-5013
kn	-5014
ote	-5015
ners	-5016
▁nav	-5017
▁ome	-5018
▁yet	-5019
aling	-5020
uting	-5021
▁brow	-5022
▁cram	-5023
▁rand	-5024
▁tusk	-5025
▁twig	-5026
▁penguin	-5027
▁printed	-5028
▁carpeted	-5029
▁darkened	-5030
▁presents	-5031
▁mountainside	-5032
ex	-5033
aco	-5034
vil	-5035
mely	-5036
▁deb	-5037
ebody	-5038
▁best	-5039
▁ends	-5040
▁nine	-5041
▁shep	-5042
▁cemet	-5043
▁entry	-5044
▁lifts	-5045
▁quite	-5046
▁skull	-5047
▁change	-5048
▁draped	-5049
▁instru	-5050
▁makeup	-5051
▁states	-5052
▁wallet	-5053
▁artific	-5054
▁perfect	-5055
▁relaxes	-5056
▁barbecue	-5057
▁shelving	-5058
▁somebody	-5059
▁sporting	-5060
▁ultimate	-5061
▁cloudless	-5062
▁preparation	-5063
atic	-5064
eler	-5065
itch	-5066
▁oct	-5067
eties	-5068
lined	-5069
▁aler	-5070
▁bron	-5071
▁deta	-5072
▁fill	-5073
▁occup	-5074
▁recei	-5075
▁begins	-5076
▁breast	-5077
▁bundle	-5078
▁frames	-5079
▁gazing	-5080
▁picked	-5081
▁styled	-5082
▁tanger	-5083
▁damaged	-5084
▁marking	-5085
▁musical	-5086
▁regular	-5087
▁siamese	-5088
▁steamed	-5089
▁consists	-5090
▁greeting	-5091
▁tethered	-5092
▁extremely	-5093
▁policemen	-5094
▁varieties	-5095
▁department	-5096
▁bookshelves	-5097
▁&	-5098
zing	-5099
▁aqu	-5100
▁nut	-5101
▁coin	-5102
▁lens	-5103
▁moon	-5104
▁tarp	-5105
undred	-5106
▁curly	-5107
▁honey	-5108
▁sight	-5109
▁wrest	-5110
▁choppy	-5111
▁season	-5112
▁jockeys	-5113
▁parents	-5114
▁everyone	-5115
▁historic	-5116
▁official	-5117
▁shredded	-5118
▁motorized	-5119
▁projector	-5120
▁artificial	-5121
fl	-5122
▁ni	-5123
▁vi	-5124
ises	-5125
what	-5126
▁aim	-5127
▁got	-5128
▁hur	-5129
▁icy	-5130
▁lux	-5131
▁rod	-5132
atory	-5133
▁bins	-5134
▁boul	-5135
▁cozy	-5136
▁friz	-5137
▁know	-5138
ippers	-5139
▁bulld	-5140
▁south	-5141
▁taxis	-5142
▁camper	-5143
▁enjoys	-5144
▁invest	-5145
▁neckla	-5146
▁random	-5147
▁deserts	-5148
▁exposed	-5149
▁hundred	-5150
▁paddles	-5151
▁telling	-5152
▁trainer	-5153
▁arriving	-5154
▁carnival	-5155
▁everything	-5156
cot	-5157
▁oak	-5158
▁sep	-5159
estri	-5160
▁easy	-5161
▁hook	-5162
▁pant	-5163
▁tick	-5164
▁curvy	-5165
▁polit	-5166
▁sword	-5167
▁glides	-5168
▁extends	-5169
▁follows	-5170
▁mexican	-5171
▁sanding	-5172
▁skiiers	-5173
▁sprouts	-5174
▁somewhat	-5175
▁stirring	-5176
▁butterfly	-5177
▁countertops	-5178
ara	-5179
cut	-5180
▁my	-5181
stop	-5182
▁gad	-5183
▁sid	-5184
wning	-5185
▁horn	-5186
▁mote	-5187
▁rese	-5188
▁trek	-5189
▁ambul	-5190
▁doesn	-5191
▁filed	-5192
▁gradu	-5193
▁kicks	-5194
▁peaco	-5195
▁peers	-5196
▁sepia	-5197
inesses	-5198
▁awning	-5199
▁vacant	-5200
▁buckets	-5201
▁flowing	-5202
▁garnish	-5203
▁italian	-5204
▁morning	-5205
▁support	-5206
▁accompan	-5207
▁crashing	-5208
▁cucumber	-5209
▁president	-5210
▁businesses	-5211
▁microwaves	-5212
▁watermelon	-5213
▁competitive	-5214
aint	-5215
zard	-5216
inder	-5217
▁give	-5218
▁pale	-5219
▁tide	-5220
vation	-5221
▁graph	-5222
▁olive	-5223
▁vests	-5224
▁arched	-5225
▁debris	-5226
▁finish	-5227
▁jumped	-5228
▁metrop	-5229
▁omelet	-5230
▁strewn	-5231
▁airways	-5232
▁avocado	-5233
▁burning	-5234
▁cameras	-5235
▁exiting	-5236
▁referee	-5237
▁student	-5238
▁accident	-5239
▁balanced	-5240
▁rounding	-5241
▁evergreen	-5242
▁architecture	-5243
nam	-5244
▁20	-5245
dant	-5246
itan	-5247
oise	-5248
▁caf	-5249
▁pac	-5250
▁lion	-5251
▁yach	-5252
▁early	-5253
▁limes	-5254
▁medic	-5255
▁obama	-5256
▁today	-5257
▁turqu	-5258
▁carton	-5259
▁gadget	-5260
▁mechan	-5261
▁rather	-5262
▁safari	-5263
▁sniffs	-5264
▁spices	-5265
▁strong	-5266
▁cafeter	-5267
▁nestled	-5268
▁nursing	-5269
▁equestri	-5270
▁striking	-5271
▁overlooks	-5272
▁decorating	-5273
▁everywhere	-5274
▁historical	-5275
▁propellers	-5276
min	-5277
rab	-5278
rid	-5279
ums	-5280
oram	-5281
pipe	-5282
rons	-5283
stal	-5284
used	-5285
▁lip	-5286
▁web	-5287
▁wig	-5288
▁woo	-5289
berry	-5290
▁beat	-5291
▁flan	-5292
▁grow	-5293
▁kiss	-5294
▁kiwi	-5295
▁smot	-5296
lights	-5297
▁belly	-5298
▁hello	-5299
▁homes	-5300
▁liner	-5301
▁paste	-5302
▁racer	-5303
▁windy	-5304
station	-5305
▁autumn	-5306
▁plaque	-5307
▁rising	-5308
▁rotten	-5309
▁stones	-5310
▁submer	-5311
▁batters	-5312
▁removed	-5313
▁warming	-5314
▁backhand	-5315
▁metropol	-5316
▁attention	-5317
▁cafeteria	-5318
▁smothered	-5319
▁turquoise	-5320
▁hummingbird	-5321
pie	-5322
tes	-5323
uis	-5324
dges	-5325
rict	-5326
turn	-5327
▁cry	-5328
▁lat	-5329
iator	-5330
ified	-5331
lapid	-5332
▁mous	-5333
▁sexy	-5334
▁shoo	-5335
liners	-5336
▁escal	-5337
▁gated	-5338
▁grabs	-5339
▁noses	-5340
▁pours	-5341
▁pregn	-5342
▁sells	-5343
▁shady	-5344
▁stars	-5345
▁lovely	-5346
▁kittens	-5347
lapidated	-5348
▁cemetery	-5349
▁underwear	-5350
▁raspberries	-5351
▁skyscrapers	-5352
▁kiteboarding	-5353
50	-5354
amed	-5355
rets	-5356
wise	-5357
ament	-5358
apers	-5359
▁late	-5360
▁meet	-5361
▁slaw	-5362
▁then	-5363
shaped	-5364
▁alert	-5365
▁earth	-5366
▁found	-5367
▁lives	-5368
▁marker	-5369
▁skills	-5370
▁depicts	-5371
▁lounges	-5372
▁cuddling	-5373
▁district	-5374
▁flavored	-5375
▁mirrored	-5376
▁particip	-5377
▁garnished	-5378
▁submerged	-5379
mat	-5380
ney	-5381
food	-5382
aster	-5383
rispy	-5384
using	-5385
▁craw	-5386
▁mill	-5387
▁trey	-5388
▁west	-5389
estern	-5390
esting	-5391
▁blows	-5392
▁drain	-5393
▁faded	-5394
▁lanes	-5395
gerator	-5396
unching	-5397
▁bagels	-5398
▁buying	-5399
▁crafts	-5400
▁crowds	-5401
▁passed	-5402
▁speeds	-5403
▁wonder	-5404
▁compete	-5405
▁gazelle	-5406
▁shadows	-5407
▁facility	-5408
▁pregnant	-5409
▁expression	-5410
cul	-5411
mes	-5412
ppo	-5413
foam	-5414
lane	-5415
lets	-5416
shes	-5417
▁est	-5418
▁mem	-5419
▁tar	-5420
▁wok	-5421
bread	-5422
fruit	-5423
▁glow	-5424
▁leas	-5425
▁less	-5426
▁mesh	-5427
▁rugs	-5428
▁torn	-5429
▁burnt	-5430
▁dance	-5431
▁resid	-5432
▁rises	-5433
▁stalk	-5434
▁techn	-5435
▁bumper	-5436
▁legged	-5437
▁linens	-5438
▁waffle	-5439
▁appetiz	-5440
▁bricked	-5441
▁digging	-5442
▁milking	-5443
▁hundreds	-5444
▁trailing	-5445
▁wireless	-5446
▁ambulance	-5447
▁embracing	-5448
▁gentlemen	-5449
▁indicates	-5450
▁snuggling	-5451
▁splashing	-5452
▁belongings	-5453
▁metropolitan	-5454
airy	-5455
alog	-5456
ngth	-5457
tock	-5458
▁buy	-5459
bbles	-5460
dated	-5461
ready	-5462
▁auto	-5463
▁boot	-5464
▁dais	-5465
▁mama	-5466
▁styl	-5467
▁chalk	-5468
▁condu	-5469
▁dairy	-5470
▁knick	-5471
▁picks	-5472
▁retro	-5473
▁wines	-5474
▁busted	-5475
▁commun	-5476
▁intric	-5477
▁pushes	-5478
▁ridden	-5479
▁carving	-5480
▁milling	-5481
▁smoothie	-5482
▁wetsuits	-5483
▁wrapping	-5484
▁magazines	-5485
▁paperwork	-5486
▁camouflage	-5487
▁dilapidated	-5488
pa	-5489
oid	-5490
reo	-5491
sion	-5492
tage	-5493
▁hid	-5494
▁inv	-5495
arian	-5496
ister	-5497
lings	-5498
urity	-5499
▁clim	-5500
▁gone	-5501
haired	-5502
rofoam	-5503
▁beers	-5504
▁ropes	-5505
▁dotted	-5506
▁except	-5507
▁lifted	-5508
▁mouths	-5509
▁retail	-5510
▁splash	-5511
▁cracked	-5512
▁guiding	-5513
▁knocked	-5514
▁patrons	-5515
▁shelter	-5516
▁vending	-5517
▁athletic	-5518
▁medicine	-5519
▁security	-5520
▁grapefruit	-5521
▁skyscraper	-5522
cd	-5523
erc	-5524
zza	-5525
come	-5526
▁fis	-5527
▁inc	-5528
ening	-5529
ilies	-5530
▁juic	-5531
▁moss	-5532
▁seed	-5533
▁twil	-5534
▁label	-5535
▁oddly	-5536
▁rooms	-5537
▁seeds	-5538
▁sided	-5539
▁spire	-5540
▁sunsh	-5541
▁tired	-5542
▁amidst	-5543
▁bronze	-5544
▁canada	-5545
▁raises	-5546
▁already	-5547
▁blocked	-5548
▁crystal	-5549
▁frizbee	-5550
▁holders	-5551
▁incline	-5552
▁partial	-5553
▁remains	-5554
▁vendors	-5555
▁wheeler	-5556
▁admiring	-5557
▁cherries	-5558
▁daylight	-5559
▁pumpkins	-5560
▁squirrel	-5561
▁tabletop	-5562
▁twilight	-5563
▁washroom	-5564
▁attending	-5565
▁condition	-5566
▁escalator	-5567
▁examining	-5568
▁lettering	-5569
▁livestock	-5570
▁processor	-5571
▁styrofoam	-5572
▁inspecting	-5573
▁pretending	-5574
▁sunflowers	-5575
▁transporting	-5576
gin	-5577
oro	-5578
▁fu	-5579
bled	-5580
▁chi	-5581
▁cin	-5582
▁dol	-5583
▁job	-5584
▁var	-5585
▁wro	-5586
▁buss	-5587
▁cact	-5588
▁chat	-5589
▁lite	-5590
▁orch	-5591
▁pita	-5592
▁teal	-5593
▁your	-5594
▁bells	-5595
▁docks	-5596
▁goose	-5597
▁octop	-5598
▁patri	-5599
▁arrows	-5600
▁backed	-5601
▁barely	-5602
▁boxing	-5603
▁exotic	-5604
▁should	-5605
▁triple	-5606
▁archway	-5607
▁bottled	-5608
▁caboose	-5609
▁pillars	-5610
▁sandals	-5611
▁seafood	-5612
▁squares	-5613
▁decorate	-5614
▁describe	-5615
▁grouping	-5616
▁necklace	-5617
▁visitors	-5618
▁equestrian	-5619
▁destination	-5620
fu	-5621
omb	-5622
reg	-5623
▁cd	-5624
bank	-5625
▁lam	-5626
▁typ	-5627
anted	-5628
▁barb	-5629
▁diag	-5630
▁dome	-5631
▁duff	-5632
▁enth	-5633
▁hawk	-5634
▁push	-5635
▁samp	-5636
▁tofu	-5637
▁cerem	-5638
▁gates	-5639
▁hairy	-5640
▁purch	-5641
▁shell	-5642
▁citrus	-5643
▁mascot	-5644
▁patrol	-5645
▁stored	-5646
▁tilted	-5647
▁walked	-5648
▁bundled	-5649
▁napping	-5650
▁olympic	-5651
▁paneled	-5652
▁panoram	-5653
▁returns	-5654
▁captured	-5655
▁deckered	-5656
▁formally	-5657
▁hovering	-5658
▁platters	-5659
▁otherwise	-5660
▁reclining	-5661
▁stoplights	-5662
▁tangerines	-5663
▁televisions	-5664
▁8	-5665
ala	-5666
▁10	-5667
▁rv	-5668
back	-5669
erst	-5670
uses	-5671
▁ais	-5672
▁alp	-5673
▁jew	-5674
▁wel	-5675
namon	-5676
strip	-5677
▁cane	-5678
▁claw	-5679
▁frog	-5680
▁gown	-5681
▁neut	-5682
ycling	-5683
▁overg	-5684
▁recre	-5685
▁sound	-5686
athered	-5687
pective	-5688
▁access	-5689
▁barric	-5690
▁calcul	-5691
▁hovers	-5692
▁length	-5693
▁adjusts	-5694
▁contest	-5695
▁pencils	-5696
▁roasted	-5697
▁typical	-5698
▁cinnamon	-5699
▁littered	-5700
▁radiator	-5701
▁snowsuit	-5702
▁trashcan	-5703
▁mannequin	-5704
▁sectional	-5705
▁accompanied	-5706
▁9	-5707
ize	-5708
usi	-5709
▁pc	-5710
hich	-5711
reme	-5712
▁aff	-5713
▁ann	-5714
▁spi	-5715
▁tip	-5716
piece	-5717
▁fist	-5718
▁kits	-5719
▁sear	-5720
iently	-5721
turned	-5722
▁basic	-5723
▁flips	-5724
▁gener	-5725
▁grain	-5726
▁pilot	-5727
▁remod	-5728
▁scram	-5729
▁spark	-5730
▁burrit	-5731
▁calves	-5732
▁goalie	-5733
▁grinds	-5734
▁heater	-5735
▁owners	-5736
▁record	-5737
▁divided	-5738
▁fixture	-5739
▁puppies	-5740
▁taxiing	-5741
▁function	-5742
▁packages	-5743
▁appearing	-5744
▁ascending	-5745
▁contemporary	-5746
▁advertisements	-5747
ith	-5748
our	-5749
lent	-5750
orth	-5751
raut	-5752
▁anc	-5753
▁jug	-5754
▁ofa	-5755
brush	-5756
bucks	-5757
cause	-5758
itude	-5759
lable	-5760
▁cole	-5761
▁dalm	-5762
▁hazy	-5763
▁seem	-5764
▁spir	-5765
▁whis	-5766
enting	-5767
ormous	-5768
▁aisle	-5769
▁amuse	-5770
▁lapse	-5771
▁laund	-5772
▁robot	-5773
▁would	-5774
▁analog	-5775
▁biking	-5776
▁ginger	-5777
▁hidden	-5778
▁hooded	-5779
▁native	-5780
▁spring	-5781
▁tanker	-5782
▁washed	-5783
▁wiping	-5784
▁ancient	-5785
▁beached	-5786
▁because	-5787
▁bulldog	-5788
▁monster	-5789
▁peacock	-5790
▁pumpkin	-5791
▁shepher	-5792
▁ceremony	-5793
▁enormous	-5794
▁examines	-5795
▁handicap	-5796
▁reflects	-5797
▁stairway	-5798
▁extending	-5799
▁sandwhich	-5800
▁starbucks	-5801
▁reflective	-5802
ebe	-5803
lor	-5804
▁gn	-5805
▁ya	-5806
hold	-5807
iche	-5808
▁fas	-5809
ppost	-5810
style	-5811
▁avai	-5812
▁clad	-5813
▁dang	-5814
▁fine	-5815
▁fora	-5816
▁sund	-5817
▁ther	-5818
▁vent	-5819
▁flash	-5820
▁hedge	-5821
▁named	-5822
▁spars	-5823
▁troph	-5824
looking	-5825
▁creepy	-5826
▁height	-5827
▁refrid	-5828
▁waling	-5829
▁candies	-5830
▁cramped	-5831
▁enthusi	-5832
▁handleb	-5833
▁markers	-5834
▁scenery	-5835
▁scissor	-5836
▁airstrip	-5837
▁lamppost	-5838
▁radishes	-5839
▁recliner	-5840
▁amusement	-5841
▁cityscape	-5842
▁galloping	-5843
▁presented	-5844
▁renovated	-5845
▁conversing	-5846
▁waterfront	-5847
▁businessman	-5848
▁surfboarding	-5849
rs	-5850
ago	-5851
hop	-5852
pit	-5853
anse	-5854
cess	-5855
ther	-5856
ugly	-5857
▁dvd	-5858
▁gor	-5859
▁hug	-5860
▁ses	-5861
▁stu	-5862
apped	-5863
ctors	-5864
orial	-5865
tower	-5866
▁came	-5867
▁dots	-5868
▁foal	-5869
▁vane	-5870
▁vine	-5871
icking	-5872
itting	-5873
▁exerc	-5874
▁futon	-5875
▁hooks	-5876
▁licks	-5877
▁might	-5878
▁swims	-5879
▁windm	-5880
▁wrist	-5881
▁climbs	-5882
▁courts	-5883
▁fedora	-5884
▁hallow	-5885
▁litter	-5886
▁shaved	-5887
▁thread	-5888
▁neutral	-5889
▁octopus	-5890
▁raining	-5891
▁readies	-5892
▁vanilla	-5893
▁barriers	-5894
▁bouncing	-5895
▁packaged	-5896
▁removing	-5897
▁sparsely	-5898
▁spinning	-5899
▁available	-5900
▁conductor	-5901
▁flamingos	-5902
▁recording	-5903
▁instrument	-5904
▁instructions	-5905
of	-5906
ham	-5907
ixed	-5908
ough	-5909
rots	-5910
seat	-5911
ucch	-5912
yees	-5913
▁atv	-5914
▁bug	-5915
▁inj	-5916
▁mur	-5917
▁roy	-5918
antic	-5919
bably	-5920
inery	-5921
sized	-5922
▁stay	-5923
▁tier	-5924
▁trot	-5925
▁year	-5926
▁colum	-5927
▁mozza	-5928
▁peach	-5929
▁peeks	-5930
▁subst	-5931
▁tourn	-5932
▁views	-5933
▁waste	-5934
▁zucch	-5935
▁alpine	-5936
▁beanie	-5937
▁burner	-5938
▁destro	-5939
▁noodle	-5940
▁raquet	-5941
▁sesame	-5942
▁sleigh	-5943
▁stereo	-5944
▁stormy	-5945
▁strips	-5946
▁trolly	-5947
▁burners	-5948
▁complex	-5949
▁concert	-5950
▁expanse	-5951
▁propell	-5952
▁sidecar	-5953
▁wildebe	-5954
▁biscuits	-5955
▁charging	-5956
▁downward	-5957
▁dragging	-5958
▁dropping	-5959
▁marching	-5960
▁settings	-5961
▁shepherd	-5962
▁sunshine	-5963
▁architect	-5964
▁captivity	-5965
▁employees	-5966
▁halloween	-5967
▁ornaments	-5968
▁positions	-5969
▁practices	-5970
▁mozzarella	-5971
▁tournament	-5972
▁handicapped	-5973
ola	-5974
wor	-5975
▁mp	-5976
cent	-5977
coat	-5978
opes	-5979
quee	-5980
ques	-5981
rawn	-5982
ties	-5983
▁bib	-5984
▁fet	-5985
▁urn	-5986
fting	-5987
walks	-5988
▁film	-5989
▁gang	-5990
▁gift	-5991
▁gull	-5992
▁loft	-5993
▁mice	-5994
▁pear	-5995
▁plun	-5996
▁poor	-5997
▁vans	-5998
▁vess	-5999
▁ways	-6000
▁chews	-6001
▁exper	-6002
▁grove	-6003
▁guide	-6004
▁ranch	-6005
▁salon	-6006
▁shine	-6007
▁solar	-6008
▁terri	-6009
▁wired	-6010
▁yummy	-6011
▁barber	-6012
▁casual	-6013
▁drapes	-6014
▁handed	-6015
▁huddle	-6016
▁import	-6017
▁master	-6018
▁moment	-6019
▁ponies	-6020
▁salmon	-6021
▁bandana	-6022
▁baseman	-6023
▁daisies	-6024
▁florets	-6025
▁flowery	-6026
▁focused	-6027
▁hunched	-6028
▁laundry	-6029
▁stylish	-6030
▁upwards	-6031
▁approach	-6032
▁grooming	-6033
▁ornament	-6034
▁sections	-6035
▁silhouet	-6036
▁zucchini	-6037
▁finishing	-6038
▁machinery	-6039
▁overgrown	-6040
▁personnel	-6041
▁residence	-6042
▁delivering	-6043
▁vegetarian	-6044
▁workstation	-6045
▁refridgerator	-6046
omy	-6047
▁ga	-6048
eech	-6049
ends	-6050
gram	-6051
rise	-6052
▁appa	-6053
▁garb	-6054
▁mosa	-6055
▁oxen	-6056
▁peak	-6057
▁salt	-6058
▁snap	-6059
▁cocon	-6060
▁dense	-6061
▁fleet	-6062
▁reins	-6063
▁teamm	-6064
▁waist	-6065
▁wedge	-6066
▁breads	-6067
▁cactus	-6068
▁danger	-6069
▁spaces	-6070
▁speech	-6071
▁ticket	-6072
▁turtle	-6073
▁unders	-6074
structed	-6075
▁congreg	-6076
▁fencing	-6077
▁gadgets	-6078
▁numeral	-6079
▁parrots	-6080
▁peaches	-6081
▁wheelie	-6082
▁athletes	-6083
▁crawling	-6084
▁engaging	-6085
▁forehead	-6086
▁pressing	-6087
▁slippers	-6088
▁standard	-6089
▁currently	-6090
▁household	-6091
▁languages	-6092
▁plantains	-6093
▁populated	-6094
▁reception	-6095
▁weathered	-6096
▁descending	-6097
▁hamburgers	-6098
▁compartments	-6099
oy	-6100
asts	-6101
entr	-6102
hift	-6103
ians	-6104
shop	-6105
▁lav	-6106
▁mcd	-6107
▁pud	-6108
▁ver	-6109
ables	-6110
cycle	-6111
erior	-6112
estic	-6113
fight	-6114
▁amaz	-6115
▁caps	-6116
▁crab	-6117
▁goof	-6118
▁husk	-6119
▁idle	-6120
▁live	-6121
▁teac	-6122
aneous	-6123
market	-6124
▁activ	-6125
▁bloss	-6126
▁camel	-6127
▁goble	-6128
▁think	-6129
▁warns	-6130
erstate	-6131
▁krispy	-6132
▁mosaic	-6133
▁nature	-6134
▁needle	-6135
▁poured	-6136
▁proper	-6137
▁shells	-6138
▁sunlit	-6139
▁trails	-6140
▁affixed	-6141
▁carried	-6142
▁haircut	-6143
▁theater	-6144
▁western	-6145
▁markings	-6146
▁parasail	-6147
▁probably	-6148
▁stuffing	-6149
▁trekking	-6150
▁carefully	-6151
▁important	-6152
▁patiently	-6153
▁interstate	-6154
▁beautifully	-6155
▁marketplace	-6156
▁underground	-6157
sk	-6158
tal	-6159
▁et	-6160
alls	-6161
▁veg	-6162
drawn	-6163
eline	-6164
stead	-6165
▁bunt	-6166
▁hoop	-6167
▁scra	-6168
▁teap	-6169
▁ugly	-6170
▁amtra	-6171
▁berry	-6172
▁nasty	-6173
▁royal	-6174
▁tails	-6175
▁wooly	-6176
▁awaits	-6177
▁buried	-6178
▁cables	-6179
▁filthy	-6180
▁hammer	-6181
▁herded	-6182
▁levels	-6183
▁pencil	-6184
▁server	-6185
▁struct	-6186
▁victor	-6187
▁banquet	-6188
▁charger	-6189
▁handled	-6190
▁mcdonal	-6191
▁slanted	-6192
▁utensil	-6193
▁concentr	-6194
▁foraging	-6195
▁memorial	-6196
▁showroom	-6197
▁stylized	-6198
▁vertical	-6199
▁croissant	-6200
▁flowering	-6201
▁makeshift	-6202
▁political	-6203
▁calculator	-6204
▁clocktower	-6205
▁consumption	-6206
00	-6207
ci	-6208
▁(	-6209
ica	-6210
not	-6211
agie	-6212
rail	-6213
tail	-6214
▁bud	-6215
eries	-6216
▁chee	-6217
▁elev	-6218
▁fran	-6219
▁lips	-6220
▁roam	-6221
bbling	-6222
umpled	-6223
▁barge	-6224
▁kreme	-6225
▁linen	-6226
▁pokes	-6227
▁proud	-6228
▁rhino	-6229
▁ripen	-6230
▁scrub	-6231
▁teens	-6232
▁twent	-6233
▁amtrak	-6234
▁bridle	-6235
▁cloths	-6236
▁diaper	-6237
▁fences	-6238
▁hoagie	-6239
▁median	-6240
▁sleepy	-6241
▁extreme	-6242
▁packing	-6243
▁peaking	-6244
▁pelican	-6245
▁snowing	-6246
▁spewing	-6247
▁blooming	-6248
▁cushions	-6249
▁customer	-6250
▁depicted	-6251
▁landscap	-6252
▁crocheted	-6253
▁patriotic	-6254
▁stockings	-6255
▁substance	-6256
▁headlights	-6257
▁ornamental	-6258
▁peacefully	-6259
▁supermarket	-6260
em	-6261
je	-6262
ake	-6263
vas	-6264
▁aer	-6265
▁vir	-6266
inary	-6267
▁asia	-6268
▁eyed	-6269
▁hash	-6270
▁obsc	-6271
▁rhin	-6272
▁added	-6273
▁depar	-6274
▁estab	-6275
▁proce	-6276
▁quart	-6277
▁rooft	-6278
▁yacht	-6279
▁attach	-6280
▁blazer	-6281
▁enough	-6282
▁ferris	-6283
▁hockey	-6284
▁squats	-6285
▁tossed	-6286
▁captive	-6287
▁channel	-6288
▁cheeses	-6289
▁coaster	-6290
▁combing	-6291
▁england	-6292
▁expired	-6293
▁housing	-6294
▁instead	-6295
▁product	-6296
▁trimmed	-6297
▁grilling	-6298
▁helmeted	-6299
▁snuggled	-6300
▁destroyed	-6301
▁highchair	-6302
▁retriever	-6303
▁rd	-6304
lift	-6305
▁ast	-6306
▁dre	-6307
▁rat	-6308
icans	-6309
occup	-6310
▁chic	-6311
▁clip	-6312
▁conv	-6313
▁cris	-6314
▁croo	-6315
▁drop	-6316
▁fell	-6317
▁safe	-6318
▁suck	-6319
eboard	-6320
▁brass	-6321
▁chill	-6322
▁drizz	-6323
▁fedex	-6324
▁herds	-6325
▁husky	-6326
▁lands	-6327
▁lefto	-6328
▁minim	-6329
▁packs	-6330
▁rally	-6331
▁aboard	-6332
▁bubble	-6333
▁intern	-6334
▁knacks	-6335
▁rapids	-6336
▁replic	-6337
▁speaks	-6338
▁stoves	-6339
▁unused	-6340
occupied	-6341
▁boarded	-6342
▁clothed	-6343
▁columns	-6344
▁deliver	-6345
▁flavors	-6346
▁halfway	-6347
▁lightly	-6348
▁broadway	-6349
▁exterior	-6350
▁headband	-6351
▁nuzzling	-6352
▁studying	-6353
▁blueberry	-6354
▁firefight	-6355
▁intricate	-6356
▁motorboat	-6357
▁sidewalks	-6358
▁overturned	-6359
▁structures	-6360
▁recreational	-6361
▁architectural	-6362
▁-	-6363
erk	-6364
aced	-6365
dock	-6366
ebur	-6367
epad	-6368
mers	-6369
omas	-6370
shed	-6371
▁dem	-6372
▁oat	-6373
cases	-6374
ckled	-6375
ented	-6376
isted	-6377
▁affe	-6378
▁cant	-6379
▁crus	-6380
▁ding	-6381
▁dude	-6382
▁goth	-6383
▁misc	-6384
▁musc	-6385
▁took	-6386
▁claus	-6387
▁layed	-6388
▁mitts	-6389
▁react	-6390
▁salsa	-6391
▁shack	-6392
▁sorts	-6393
▁staff	-6394
▁swift	-6395
▁taste	-6396
▁toned	-6397
▁woven	-6398
tenance	-6399
▁blades	-6400
▁browns	-6401
▁cranes	-6402
▁employ	-6403
▁models	-6404
▁seeing	-6405
▁styles	-6406
▁taller	-6407
▁teapot	-6408
▁viewer	-6409
▁wander	-6410
▁worked	-6411
▁contact	-6412
▁fireman	-6413
▁leashes	-6414
▁lunging	-6415
▁macbook	-6416
▁signing	-6417
▁tattoos	-6418
▁wrought	-6419
▁maintain	-6420
▁shooting	-6421
▁groceries	-6422
▁underside	-6423
▁activities	-6424
▁eyeglasses	-6425
▁instructor	-6426
▁contraption	-6427
▁maintenance	-6428
ape	-6429
psi	-6430
whe	-6431
amel	-6432
born	-6433
ston	-6434
▁dus	-6435
▁rig	-6436
arium	-6437
atian	-6438
ratul	-6439
▁bone	-6440
▁cave	-6441
▁lant	-6442
▁nook	-6443
▁pood	-6444
▁rink	-6445
▁root	-6446
huahua	-6447
▁colla	-6448
▁diced	-6449
▁grave	-6450
▁hides	-6451
▁loves	-6452
▁marks	-6453
▁murky	-6454
▁novel	-6455
▁pepsi	-6456
▁swiss	-6457
fficult	-6458
▁attack	-6459
▁canvas	-6460
▁contin	-6461
▁famous	-6462
▁glider	-6463
▁gloomy	-6464
▁hearts	-6465
▁pantry	-6466
▁pauses	-6467
▁quaint	-6468
▁stages	-6469
▁thomas	-6470
▁tosses	-6471
▁burrito	-6472
▁butcher	-6473
▁central	-6474
▁checker	-6475
▁docking	-6476
▁preform	-6477
▁receive	-6478
▁animated	-6479
▁changing	-6480
▁affection	-6481
▁chihuahua	-6482
▁curiously	-6483
▁dalmatian	-6484
▁difficult	-6485
▁establish	-6486
▁newspapers	-6487
gi	-6488
aps	-6489
dry	-6490
tel	-6491
lect	-6492
meal	-6493
mock	-6494
▁cly	-6495
▁mad	-6496
▁til	-6497
▁tit	-6498
▁wak	-6499
guard	-6500
iforn	-6501
orous	-6502
orted	-6503
uffed	-6504
▁aust	-6505
▁buds	-6506
▁ford	-6507
▁hour	-6508
▁ping	-6509
▁sams	-6510
▁scre	-6511
▁sell	-6512
▁twel	-6513
▁wavy	-6514
ensive	-6515
flower	-6516
▁bring	-6517
▁conne	-6518
▁fryer	-6519
▁greet	-6520
▁jewel	-6521
▁mason	-6522
▁pretz	-6523
▁proje	-6524
▁strap	-6525
▁wheat	-6526
▁wrong	-6527
▁yield	-6528
ifornia	-6529
uggling	-6530
▁fairly	-6531
▁frisby	-6532
▁layers	-6533
▁salads	-6534
▁sauerk	-6535
▁stalks	-6536
▁casting	-6537
▁certain	-6538
▁hammock	-6539
▁observe	-6540
▁replica	-6541
▁rowboat	-6542
▁spreads	-6543
▁assembly	-6544
▁backseat	-6545
▁boulders	-6546
▁elevator	-6547
▁modified	-6548
▁paneling	-6549
▁toilette	-6550
▁trailers	-6551
▁cheesebur	-6552
▁kiteboard	-6553
▁meatballs	-6554
▁scrambled	-6555
▁spreading	-6556
▁streamers	-6557
▁appetizers	-6558
▁california	-6559
▁controlled	-6560
▁handlebars	-6561
▁unoccupied	-6562
▁surroundings	-6563
fth	-6564
kia	-6565
nas	-6566
nie	-6567
▁zo	-6568
down	-6569
itti	-6570
▁pra	-6571
known	-6572
opard	-6573
▁beam	-6574
▁find	-6575
▁prey	-6576
▁rund	-6577
▁sigh	-6578
▁tell	-6579
▁bases	-6580
▁blade	-6581
▁broth	-6582
▁crazy	-6583
▁fours	-6584
▁mango	-6585
▁motes	-6586
▁parks	-6587
▁plank	-6588
▁races	-6589
▁therm	-6590
▁tongs	-6591
▁arrive	-6592
▁beauty	-6593
▁boiled	-6594
▁coated	-6595
▁column	-6596
▁entire	-6597
▁juicer	-6598
▁kayaks	-6599
▁misses	-6600
▁paying	-6601
▁protru	-6602
▁rescue	-6603
▁sleeve	-6604
▁twelve	-6605
▁twenty	-6606
▁virgin	-6607
▁brushed	-6608
▁burgers	-6609
▁checked	-6610
▁couples	-6611
▁divider	-6612
▁gathers	-6613
▁graphic	-6614
▁newborn	-6615
▁plunger	-6616
▁ribbons	-6617
▁rundown	-6618
▁standup	-6619
▁terrier	-6620
▁aquarium	-6621
▁brownies	-6622
▁dangling	-6623
▁employee	-6624
▁outdated	-6625
▁recently	-6626
▁triangle	-6627
▁community	-6628
▁lifeguard	-6629
▁throughout	-6630
▁perspective	-6631
▁demonstration	-6632
▁investigating	-6633
▁x	-6634
cis	-6635
▁12	-6636
dale	-6637
well	-6638
▁cel	-6639
▁enc	-6640
▁hyd	-6641
▁unb	-6642
▁wid	-6643
clock	-6644
▁abst	-6645
▁arts	-6646
▁bake	-6647
▁bust	-6648
▁idly	-6649
▁knot	-6650
▁seal	-6651
▁spen	-6652
▁tone	-6653
▁angel	-6654
▁bundt	-6655
▁combo	-6656
▁foamy	-6657
▁gifts	-6658
▁glaze	-6659
▁goers	-6660
▁goofy	-6661
▁india	-6662
▁laden	-6663
▁learn	-6664
▁merch	-6665
▁nokia	-6666
▁steal	-6667
▁sweep	-6668
▁whose	-6669
inating	-6670
▁diners	-6671
▁dunkin	-6672
▁gothic	-6673
▁laughs	-6674
▁lunges	-6675
▁luxury	-6676
▁magnet	-6677
▁palace	-6678
▁poodle	-6679
▁region	-6680
▁resemb	-6681
▁shears	-6682
▁southw	-6683
▁spiral	-6684
▁austral	-6685
▁boating	-6686
▁caramel	-6687
▁coaches	-6688
▁groomed	-6689
▁injured	-6690
▁leopard	-6691
▁mailbox	-6692
▁minimal	-6693
▁miscell	-6694
▁oatmeal	-6695
▁paddock	-6696
▁rounded	-6697
▁samsung	-6698
▁spanish	-6699
▁technol	-6700
▁unknown	-6701
▁abstract	-6702
▁backside	-6703
▁bordered	-6704
▁ceilings	-6705
▁patterns	-6706
▁swimsuit	-6707
▁trotting	-6708
▁playfully	-6709
▁wrestling	-6710
▁graduation	-6711
▁mechanical	-6712
▁sauerkraut	-6713
▁cheeseburger	-6714
▁streetlights	-6715
ah	-6716
bla	-6717
yer	-6718
▁mu	-6719
▁ere	-6720
▁inn	-6721
▁iro	-6722
dryer	-6723
kiing	-6724
stick	-6725
▁cabs	-6726
▁coal	-6727
▁laps	-6728
▁lock	-6729
▁norm	-6730
▁peer	-6731
▁succ	-6732
▁sunb	-6733
▁tack	-6734
ensely	-6735
filled	-6736
ifying	-6737
marine	-6738
olding	-6739
▁award	-6740
▁blank	-6741
▁brace	-6742
▁bushy	-6743
▁hours	-6744
▁inner	-6745
▁least	-6746
▁peels	-6747
▁relig	-6748
▁rugby	-6749
▁scoop	-6750
▁shark	-6751
▁squee	-6752
▁vines	-6753
▁boston	-6754
▁crying	-6755
▁lizard	-6756
▁preser	-6757
▁skelet	-6758
▁starts	-6759
▁sweets	-6760
▁trophy	-6761
▁forrest	-6762
▁ironing	-6763
▁jewelry	-6764
▁lighter	-6765
▁pitches	-6766
▁playful	-6767
▁families	-6768
▁leafless	-6769
▁maneuver	-6770
▁national	-6771
▁outhouse	-6772
▁overalls	-6773
▁quarters	-6774
▁rearview	-6775
▁airliners	-6776
▁converted	-6777
▁flatbread	-6778
▁partition	-6779
▁propellor	-6780
▁submarine	-6781
▁croissants	-6782
▁discussing	-6783
▁presenting	-6784
▁constructed	-6785
▁nightstands	-6786
▁establishment	-6787
ae	-6788
hy	-6789
ami	-6790
cre	-6791
▁ir	-6792
▁ye	-6793
atee	-6794
mble	-6795
port	-6796
▁age	-6797
▁dan	-6798
▁gig	-6799
▁lic	-6800
▁oar	-6801
▁sli	-6802
▁tot	-6803
boats	-6804
icles	-6805
inton	-6806
uzzle	-6807
▁mark	-6808
▁spec	-6809
▁sure	-6810
▁taco	-6811
icular	-6812
venile	-6813
▁abund	-6814
▁batch	-6815
▁beads	-6816
▁blown	-6817
▁boxed	-6818
▁coupe	-6819
▁discs	-6820
▁fixed	-6821
▁folks	-6822
▁grind	-6823
▁mount	-6824
▁navig	-6825
▁pleas	-6826
▁robes	-6827
▁twigs	-6828
▁bitten	-6829
▁crumbs	-6830
▁fellow	-6831
▁harley	-6832
▁labels	-6833
▁launch	-6834
▁recipe	-6835
▁shovel	-6836
▁wreath	-6837
▁anticip	-6838
▁banners	-6839
▁bundles	-6840
▁chicago	-6841
▁cottage	-6842
▁feature	-6843
▁flanked	-6844
▁pancake	-6845
▁panting	-6846
▁program	-6847
▁snowman	-6848
▁sunrise	-6849
▁tightly	-6850
▁welcome	-6851
▁alleyway	-6852
▁chatting	-6853
▁curbside	-6854
▁juvenile	-6855
▁roasting	-6856
▁seasoned	-6857
▁companion	-6858
▁congratul	-6859
▁oversized	-6860
▁releasing	-6861
▁pineapples	-6862
▁projection	-6863
▁microphones	-6864
▁performance	-6865
▁miscellaneous	-6866
:2	-6867
my	-6868
acy	-6869
las	-6870
wag	-6871
post	-6872
uffs	-6873
unks	-6874
ustr	-6875
▁unt	-6876
▁vel	-6877
arded	-6878
graph	-6879
iders	-6880
inted	-6881
monds	-6882
olded	-6883
▁able	-6884
▁amen	-6885
▁arab	-6886
▁effe	-6887
▁goog	-6888
▁monk	-6889
▁pong	-6890
▁slal	-6891
▁stor	-6892
▁vers	-6893
▁waln	-6894
▁zomb	-6895
▁banks	-6896
▁bison	-6897
▁curls	-6898
▁demol	-6899
▁drops	-6900
▁grate	-6901
▁gummy	-6902
▁hawai	-6903
▁holly	-6904
▁invol	-6905
▁loose	-6906
▁melon	-6907
▁motoc	-6908
▁scall	-6909
▁seper	-6910
▁soars	-6911
▁spraw	-6912
raction	-6913
shopped	-6914
▁attend	-6915
▁battle	-6916
▁canned	-6917
▁conven	-6918
▁freely	-6919
▁promin	-6920
▁quiche	-6921
▁sheeps	-6922
▁stovet	-6923
▁tshirt	-6924
▁wedges	-6925
▁allowed	-6926
▁almonds	-6927
▁bedside	-6928
▁hitched	-6929
▁intense	-6930
▁peoples	-6931
▁repairs	-6932
▁swiftly	-6933
▁univers	-6934
▁varying	-6935
▁barbeque	-6936
▁costumed	-6937
▁knitting	-6938
▁operated	-6939
▁overlook	-6940
▁peaceful	-6941
▁pelicans	-6942
▁shearing	-6943
▁toddlers	-6944
▁tricycle	-6945
▁panoramic	-6946
▁revealing	-6947
▁seasoning	-6948
▁surrounds	-6949
▁horizontal	-6950
▁livingroom	-6951
▁navigating	-6952
▁automobiles	-6953
▁celebratory	-6954
▁centerpiece	-6955
▁participating	-6956
for	-6957
fri	-6958
haw	-6959
nes	-6960
wed	-6961
▁11	-6962
aces	-6963
ebox	-6964
held	-6965
ints	-6966
▁alt	-6967
▁era	-6968
▁exe	-6969
scale	-6970
tible	-6971
water	-6972
▁exha	-6973
▁gras	-6974
▁last	-6975
▁mats	-6976
▁mick	-6977
▁plac	-6978
▁vibr	-6979
▁beaks	-6980
▁bento	-6981
▁bloom	-6982
▁bored	-6983
▁coral	-6984
▁elbow	-6985
▁laven	-6986
▁nails	-6987
▁neath	-6988
▁prair	-6989
▁visor	-6990
▁volks	-6991
▁wants	-6992
▁whine	-6993
▁booths	-6994
▁burned	-6995
▁clydes	-6996
▁collie	-6997
▁dollar	-6998
▁facial	-6999
▁galley	-7000
▁hurdle	-7001
▁looked	-7002
▁parlor	-7003
▁pilots	-7004
▁repres	-7005
▁stroll	-7006
▁brownie	-7007
▁bushels	-7008
▁details	-7009
▁flipped	-7010
▁hamster	-7011
▁messing	-7012
▁patient	-7013
▁popular	-7014
▁saddled	-7015
▁sailors	-7016
▁yawning	-7017
▁buliding	-7018
▁diagonal	-7019
▁frowning	-7020
▁gestures	-7021
▁indicate	-7022
▁parasols	-7023
▁stovetop	-7024
▁windmill	-7025
▁packaging	-7026
▁religious	-7027
▁sunflower	-7028
▁victorian	-7029
▁attraction	-7030
▁discussion	-7031
▁enthusiast	-7032
▁mannequins	-7033
▁renovation	-7034
ys	-7035
das	-7036
don	-7037
iel	-7038
mit	-7039
▁bm	-7040
ader	-7041
airs	-7042
eing	-7043
itor	-7044
pace	-7045
shot	-7046
vids	-7047
▁ank	-7048
▁bom	-7049
▁cos	-7050
▁poo	-7051
▁sam	-7052
▁sox	-7053
bbled	-7054
creen	-7055
osaur	-7056
▁beag	-7057
▁bits	-7058
▁cred	-7059
▁diff	-7060
▁disp	-7061
▁gnar	-7062
▁lazy	-7063
▁memo	-7064
▁mens	-7065
▁scar	-7066
▁whip	-7067
tended	-7068
unches	-7069
vidson	-7070
▁cheek	-7071
▁dated	-7072
▁edges	-7073
▁fixes	-7074
▁roped	-7075
▁scaff	-7076
▁tanks	-7077
▁union	-7078
▁aprons	-7079
▁cannot	-7080
▁childs	-7081
▁chunks	-7082
▁concer	-7083
▁goatee	-7084
▁mantel	-7085
▁mickey	-7086
▁pinned	-7087
▁pointy	-7088
▁remain	-7089
▁toothp	-7090
▁tusked	-7091
▁uphill	-7092
▁velvet	-7093
▁vessel	-7094
▁bearing	-7095
▁coconut	-7096
▁crochet	-7097
▁crooked	-7098
▁directs	-7099
▁floored	-7100
▁handler	-7101
▁matches	-7102
▁planted	-7103
▁prairie	-7104
▁pudding	-7105
▁rooftop	-7106
▁sprayed	-7107
▁stately	-7108
▁activity	-7109
▁cruising	-7110
▁handmade	-7111
▁lavender	-7112
▁numbered	-7113
▁raincoat	-7114
▁swimmers	-7115
▁barricade	-7116
▁glassware	-7117
▁hairdryer	-7118
▁locations	-7119
▁platforms	-7120
▁repairing	-7121
▁wonderful	-7122
▁workspace	-7123
▁parachutes	-7124
▁parasailer	-7125
▁preforming	-7126
▁controlling	-7127
▁convertible	-7128
▁kitchenette	-7129
▁photographing	-7130
▁$	-7131
aki	-7132
dar	-7133
ogy	-7134
▁18	-7135
ards	-7136
ison	-7137
liet	-7138
long	-7139
vern	-7140
vish	-7141
▁cob	-7142
▁emo	-7143
▁gut	-7144
▁unp	-7145
▁via	-7146
cisco	-7147
ieval	-7148
works	-7149
▁bark	-7150
▁bows	-7151
▁burg	-7152
▁host	-7153
▁lace	-7154
▁pars	-7155
▁sitt	-7156
dering	-7157
elines	-7158
ential	-7159
▁bound	-7160
▁crash	-7161
▁denim	-7162
▁dolly	-7163
▁flour	-7164
▁given	-7165
▁legos	-7166
▁masks	-7167
▁misty	-7168
▁north	-7169
▁ruler	-7170
▁sales	-7171
▁shrub	-7172
▁better	-7173
▁guards	-7174
▁knight	-7175
▁lavish	-7176
▁offers	-7177
▁purses	-7178
▁slalom	-7179
▁cockpit	-7180
▁granola	-7181
▁license	-7182
▁needles	-7183
▁peanuts	-7184
▁profile	-7185
▁sneaker	-7186
▁symbols	-7187
▁vibrant	-7188
▁casually	-7189
▁contempl	-7190
▁dinosaur	-7191
▁dumpster	-7192
▁forehand	-7193
▁handling	-7194
▁medieval	-7195
▁skeleton	-7196
▁arranging	-7197
▁celebrate	-7198
▁commuters	-7199
▁francisco	-7200
▁luxurious	-7201
▁searching	-7202
▁triangular	-7203
▁silhouetted	-7204
▁wildflowers	-7205
au	-7206
bl	-7207
dog	-7208
han	-7209
unt	-7210
▁mm	-7211
▁vw	-7212
cola	-7213
happ	-7214
igns	-7215
ilia	-7216
itol	-7217
olin	-7218
rang	-7219
ship	-7220
undy	-7221
▁amp	-7222
▁cyl	-7223
▁neg	-7224
▁ner	-7225
▁occ	-7226
▁sen	-7227
ander	-7228
iffel	-7229
organ	-7230
story	-7231
▁drum	-7232
▁graf	-7233
▁hugs	-7234
▁pins	-7235
▁stro	-7236
▁tips	-7237
▁toll	-7238
▁tons	-7239
▁tren	-7240
ometer	-7241
stairs	-7242
▁adorn	-7243
▁await	-7244
▁baker	-7245
▁beams	-7246
▁cheer	-7247
▁dives	-7248
▁doily	-7249
▁drums	-7250
▁leafs	-7251
▁score	-7252
▁wraps	-7253
▁always	-7254
▁arches	-7255
▁bandan	-7256
▁beagle	-7257
▁duffel	-7258
▁eiffel	-7259
▁france	-7260
▁icebox	-7261
▁incred	-7262
▁marshm	-7263
▁mouses	-7264
▁movies	-7265
▁normal	-7266
▁racers	-7267
▁shakes	-7268
▁switch	-7269
▁tipped	-7270
▁toliet	-7271
attended	-7272
▁address	-7273
▁capitol	-7274
▁century	-7275
▁cowboys	-7276
▁filming	-7277
▁minutes	-7278
▁nowhere	-7279
▁rooster	-7280
▁armchair	-7281
▁browsing	-7282
▁burgundy	-7283
▁gigantic	-7284
▁halfpipe	-7285
▁hawaiian	-7286
▁nibbling	-7287
▁overview	-7288
▁sampling	-7289
▁spanning	-7290
▁volkswag	-7291
▁dangerous	-7292
▁defensive	-7293
▁eachother	-7294
▁socializing	-7295
:3	-7296
gus	-7297
rob	-7298
rung	-7299
with	-7300
▁bmw	-7301
▁doc	-7302
▁hig	-7303
▁hoo	-7304
▁ivy	-7305
▁jes	-7306
▁law	-7307
▁lla	-7308
▁rub	-7309
▁spo	-7310
▁usa	-7311
▁val	-7312
▁yak	-7313
eding	-7314
happy	-7315
ifier	-7316
mesan	-7317
▁buoy	-7318
▁crop	-7319
▁diet	-7320
▁east	-7321
▁jean	-7322
▁pigs	-7323
▁pops	-7324
▁quar	-7325
▁reco	-7326
▁soil	-7327
▁tots	-7328
▁whom	-7329
ulture	-7330
▁anten	-7331
▁dingy	-7332
▁flush	-7333
▁grows	-7334
▁limbs	-7335
▁maybe	-7336
▁penny	-7337
▁rared	-7338
▁sodas	-7339
▁swirl	-7340
▁tater	-7341
▁tells	-7342
itorium	-7343
▁adjust	-7344
▁credit	-7345
▁dental	-7346
▁detour	-7347
▁facade	-7348
▁linger	-7349
▁petals	-7350
▁ripped	-7351
▁temple	-7352
▁tripod	-7353
▁waking	-7354
▁breaded	-7355
▁cleaner	-7356
▁dispens	-7357
▁donkeys	-7358
▁festive	-7359
▁headset	-7360
▁hilltop	-7361
▁illustr	-7362
▁impress	-7363
▁testing	-7364
▁upscale	-7365
organized	-7366
▁basement	-7367
▁combined	-7368
▁davidson	-7369
▁loveseat	-7370
▁majestic	-7371
▁mcdonald	-7372
▁messages	-7373
▁ordering	-7374
▁parmesan	-7375
▁sprawled	-7376
▁starring	-7377
▁amenities	-7378
▁concerned	-7379
▁handstand	-7380
▁ostriches	-7381
▁receiving	-7382
▁sidelines	-7383
▁stationed	-7384
▁auditorium	-7385
▁clydesdale	-7386
▁demolished	-7387
▁mattresses	-7388
▁transported	-7389
bus	-7390
elt	-7391
agna	-7392
foil	-7393
gate	-7394
hern	-7395
tles	-7396
uzzi	-7397
▁awk	-7398
▁bon	-7399
▁cds	-7400
▁fav	-7401
▁hus	-7402
▁isn	-7403
▁jac	-7404
▁mal	-7405
▁raz	-7406
▁ren	-7407
▁slo	-7408
close	-7409
igned	-7410
▁badm	-7411
▁choo	-7412
▁flys	-7413
▁hump	-7414
▁ipad	-7415
▁lids	-7416
▁peep	-7417
▁poll	-7418
▁ribs	-7419
▁skim	-7420
▁slat	-7421
lender	-7422
ptions	-7423
screen	-7424
urfing	-7425
▁embed	-7426
▁envel	-7427
▁globe	-7428
▁medal	-7429
▁paris	-7430
▁sings	-7431
▁tones	-7432
▁wades	-7433
hydrant	-7434
▁adding	-7435
▁aiming	-7436
▁announ	-7437
▁arabic	-7438
▁breaks	-7439
▁clause	-7440
▁cliffs	-7441
▁compon	-7442
▁manual	-7443
▁mature	-7444
▁member	-7445
▁missed	-7446
▁onward	-7447
▁petted	-7448
▁stradd	-7449
▁womans	-7450
▁woolly	-7451
▁youths	-7452
▁amazing	-7453
▁awkward	-7454
▁charter	-7455
▁circles	-7456
▁cracker	-7457
▁jacuzzi	-7458
▁lasagna	-7459
▁lobster	-7460
▁patches	-7461
▁pecking	-7462
▁protect	-7463
▁seaside	-7464
▁converse	-7465
▁fighters	-7466
▁handrail	-7467
▁homeless	-7468
▁munching	-7469
▁observes	-7470
▁planters	-7471
▁purchase	-7472
▁shutters	-7473
▁speckled	-7474
▁clustered	-7475
▁discarded	-7476
▁obstacles	-7477
▁billboards	-7478
▁grasslands	-7479
▁unattended	-7480
▁university	-7481
▁wildebeest	-7482
▁marshmallow	-7483
▁restaurants	-7484
:1	-7485
hn	-7486
ass	-7487
hor	-7488
ict	-7489
ief	-7490
ike	-7491
lev	-7492
yon	-7493
▁dw	-7494
blem	-7495
gons	-7496
heye	-7497
rack	-7498
rica	-7499
weed	-7500
▁ash	-7501
▁did	-7502
▁gay	-7503
▁gir	-7504
▁hey	-7505
▁jun	-7506
▁sed	-7507
antly	-7508
olate	-7509
tened	-7510
▁arid	-7511
▁bris	-7512
▁mile	-7513
▁naps	-7514
▁nude	-7515
▁scot	-7516
▁sele	-7517
▁sequ	-7518
▁shar	-7519
capped	-7520
iously	-7521
rested	-7522
▁booze	-7523
▁ditch	-7524
▁effic	-7525
▁expla	-7526
▁freez	-7527
▁hatch	-7528
▁looms	-7529
▁manic	-7530
▁plums	-7531
▁pound	-7532
▁prist	-7533
▁puffy	-7534
▁years	-7535
dressed	-7536
▁africa	-7537
▁angels	-7538
▁angles	-7539
▁artist	-7540
▁bloody	-7541
▁creamy	-7542
▁eatery	-7543
▁gazebo	-7544
▁guides	-7545
▁necess	-7546
▁outlet	-7547
▁sailor	-7548
▁satell	-7549
▁wagons	-7550
▁weight	-7551
▁winery	-7552
▁arrives	-7553
▁boulder	-7554
▁bubbles	-7555
▁concept	-7556
▁feather	-7557
▁fisheye	-7558
▁melting	-7559
▁ordered	-7560
▁parsley	-7561
▁pockets	-7562
▁seaweed	-7563
▁sheared	-7564
▁skaters	-7565
▁teacher	-7566
▁unident	-7567
▁apparent	-7568
▁cardinal	-7569
▁embedded	-7570
▁exercise	-7571
▁friendly	-7572
▁inspects	-7573
▁leftover	-7574
▁placemat	-7575
▁sprinkle	-7576
▁steaming	-7577
▁visiting	-7578
▁workshop	-7579
▁alcoholic	-7580
▁automatic	-7581
▁badminton	-7582
▁fireworks	-7583
▁intensely	-7584
▁perfectly	-7585
▁stairwell	-7586
▁strolling	-7587
▁celebrates	-7588
▁chalkboard	-7589
▁protruding	-7590
▁technology	-7591
▁landscaping	-7592
▁scaffolding	-7593
▁waterskiing	-7594
rd	-7595
▁q	-7596
com	-7597
ism	-7598
rad	-7599
ucc	-7600
wer	-7601
▁ec	-7602
▁kh	-7603
▁lu	-7604
▁uk	-7605
gien	-7606
pect	-7607
uded	-7608
▁etc	-7609
▁gum	-7610
▁ord	-7611
cedes	-7612
ipher	-7613
posed	-7614
ppers	-7615
press	-7616
▁ages	-7617
▁brun	-7618
▁cuis	-7619
▁date	-7620
▁dips	-7621
▁fuel	-7622
▁lost	-7623
▁pooh	-7624
▁secl	-7625
▁song	-7626
▁stab	-7627
▁surg	-7628
▁util	-7629
▁vict	-7630
mingly	-7631
▁acrob	-7632
▁aerop	-7633
▁beets	-7634
▁build	-7635
▁cider	-7636
▁clump	-7637
▁domed	-7638
▁flats	-7639
▁focal	-7640
▁hound	-7641
▁jesus	-7642
▁maple	-7643
▁moose	-7644
▁moved	-7645
▁rains	-7646
▁razor	-7647
▁slats	-7648
▁snake	-7649
▁study	-7650
▁theat	-7651
▁witha	-7652
rabilia	-7653
▁copper	-7654
▁cotton	-7655
▁edible	-7656
▁fitted	-7657
▁grains	-7658
▁holing	-7659
▁hungry	-7660
▁hygien	-7661
▁linked	-7662
▁panels	-7663
▁picket	-7664
▁placid	-7665
▁shield	-7666
▁sloped	-7667
▁unpack	-7668
▁warmly	-7669
▁battery	-7670
▁brussel	-7671
▁collect	-7672
▁crashed	-7673
▁crashes	-7674
▁guitars	-7675
▁infield	-7676
▁install	-7677
▁keeping	-7678
▁proudly	-7679
▁receipt	-7680
▁sipping	-7681
▁spilled	-7682
▁tilting	-7683
▁tinfoil	-7684
▁tissues	-7685
▁altitude	-7686
▁antiques	-7687
▁blenders	-7688
▁cocktail	-7689
▁desolate	-7690
▁detailed	-7691
▁ornately	-7692
▁peripher	-7693
▁resemble	-7694
▁shipping	-7695
▁spending	-7696
▁stocking	-7697
▁abundance	-7698
▁billowing	-7699
▁departing	-7700
▁hollywood	-7701
▁interview	-7702
▁jetliners	-7703
▁launching	-7704
▁motorists	-7705
▁notebooks	-7706
▁riverbank	-7707
▁seemingly	-7708
▁remodeling	-7709
▁elaborately	-7710
▁memorabilia	-7711
▁photography	-7712
▁picturesque	-7713
0.	-7714
tw	-7715
osk	-7716
ows	-7717
son	-7718
aled	-7719
arat	-7720
away	-7721
cars	-7722
coln	-7723
igan	-7724
inis	-7725
ires	-7726
▁201	-7727
▁adv	-7728
▁bol	-7729
▁jud	-7730
▁sin	-7731
▁teh	-7732
▁tvs	-7733
berty	-7734
ernal	-7735
orite	-7736
paved	-7737
plant	-7738
▁aqua	-7739
▁blvd	-7740
▁chip	-7741
▁ener	-7742
▁hero	-7743
▁inse	-7744
▁mari	-7745
▁mono	-7746
▁pews	-7747
▁prom	-7748
▁tuna	-7749
▁turb	-7750
▁wiim	-7751
levard	-7752
ointed	-7753
opened	-7754
▁chase	-7755
▁creme	-7756
▁crock	-7757
▁expos	-7758
▁fatig	-7759
▁gazes	-7760
▁gulls	-7761
▁heron	-7762
▁keeps	-7763
▁loads	-7764
▁potty	-7765
▁ridge	-7766
▁skill	-7767
▁swamp	-7768
flowing	-7769
▁acting	-7770
▁bomber	-7771
▁chases	-7772
▁common	-7773
▁cooker	-7774
▁dispos	-7775
▁flames	-7776
▁flavor	-7777
▁nuzzle	-7778
▁parake	-7779
▁pawing	-7780
▁poorly	-7781
▁prints	-7782
▁reigns	-7783
▁rounds	-7784
▁scenes	-7785
▁senior	-7786
▁source	-7787
▁sprays	-7788
▁sticky	-7789
▁strand	-7790
▁strung	-7791
▁trench	-7792
▁america	-7793
▁apparat	-7794
▁balding	-7795
▁cuddled	-7796
▁cuisine	-7797
▁cycling	-7798
▁faucets	-7799
▁gorilla	-7800
▁heating	-7801
▁husband	-7802
▁hygiene	-7803
▁infront	-7804
▁leaking	-7805
▁organic	-7806
▁raisins	-7807
▁remodel	-7808
▁reveals	-7809
▁rushing	-7810
▁saucers	-7811
▁slender	-7812
▁takeout	-7813
▁topless	-7814
▁uneaten	-7815
▁version	-7816
▁avocados	-7817
▁bandanna	-7818
▁collared	-7819
▁creature	-7820
▁drawings	-7821
▁external	-7822
▁favorite	-7823
▁handheld	-7824
▁investig	-7825
▁juggling	-7826
▁lipstick	-7827
▁occupied	-7828
▁offering	-7829
▁onlooker	-7830
▁penguins	-7831
▁pristine	-7832
▁restored	-7833
▁secluded	-7834
▁serviced	-7835
▁antelopes	-7836
▁assembled	-7837
▁countries	-7838
▁distorted	-7839
▁longboard	-7840
▁southwest	-7841
▁streaming	-7842
▁teammates	-7843
▁competitor	-7844
▁congregate	-7845
▁dispensers	-7846
▁formations	-7847
▁maintained	-7848
▁windsurfer	-7849
▁photoshopped	-7850
▁concentrating	-7851
nd	-7852
pr	-7853
bre	-7854
izz	-7855
sty	-7856
upe	-7857
war	-7858
zed	-7859
▁dv	-7860
▁ev	-7861
▁fr	-7862
▁py	-7863
bear	-7864
blue	-7865
girl	-7866
gran	-7867
iing	-7868
onge	-7869
oped	-7870
pens	-7871
ubby	-7872
ucky	-7873
▁ago	-7874
▁ans	-7875
▁cha	-7876
▁dod	-7877
▁dut	-7878
▁joy	-7879
▁mam	-7880
▁pam	-7881
▁sum	-7882
cream	-7883
ooted	-7884
storm	-7885
thora	-7886
veled	-7887
▁beet	-7888
▁chim	-7889
▁colt	-7890
▁danc	-7891
▁hips	-7892
▁jala	-7893
▁kore	-7894
▁larg	-7895
▁ming	-7896
▁orig	-7897
▁outc	-7898
▁pome	-7899
▁smas	-7900
▁tins	-7901
▁wade	-7902
▁want	-7903
▁wife	-7904
angled	-7905
ashore	-7906
ension	-7907
isters	-7908
mobile	-7909
▁charm	-7910
▁chops	-7911
▁explo	-7912
▁feild	-7913
▁glide	-7914
▁kiosk	-7915
▁lapel	-7916
▁milks	-7917
▁plans	-7918
▁plumb	-7919
▁pumps	-7920
▁stark	-7921
▁chubby	-7922
▁cities	-7923
▁doctor	-7924
▁duffle	-7925
▁exting	-7926
▁fronts	-7927
▁guided	-7928
▁hearty	-7929
▁marine	-7930
▁rhinos	-7931
▁rocket	-7932
▁smokes	-7933
▁spider	-7934
▁tiling	-7935
▁violin	-7936
▁waiter	-7937
▁walker	-7938
changing	-7939
▁antenna	-7940
▁eagerly	-7941
▁firemen	-7942
▁goblets	-7943
▁jalapen	-7944
▁jerseys	-7945
▁lecture	-7946
▁liberty	-7947
▁mangoes	-7948
▁minivan	-7949
▁notepad	-7950
▁orchard	-7951
▁organiz	-7952
▁rumpled	-7953
▁turkeys	-7954
▁crafting	-7955
▁creating	-7956
▁emerging	-7957
▁gazelles	-7958
▁gripping	-7959
▁plethora	-7960
▁pomegran	-7961
▁possible	-7962
▁seashore	-7963
▁sheering	-7964
▁shoppers	-7965
▁spotless	-7966
▁tattooed	-7967
▁unopened	-7968
▁wrappers	-7969
▁attendant	-7970
▁batteries	-7971
▁boulevard	-7972
▁curtained	-7973
▁ducklings	-7974
▁prominent	-7975
▁rollerbla	-7976
▁temporary	-7977
▁advertises	-7978
▁attachment	-7979
▁blackberry	-7980
▁cigarettes	-7981
▁completing	-7982
▁procession	-7983
▁protesters	-7984
▁suspenders	-7985
▁butterflies	-7986
▁overflowing	-7987
▁firefighters	-7988
▁demonstrating	-7989
sy	-7990
asy	-7991
▁tu	-7992
dish	-7993
hole	-7994
onda	-7995
oper	-7996
owed	-7997
rees	-7998
robe	-7999
uary	-8000
wers	-8001
▁cri	-8002
▁flu	-8003
▁ken	-8004
▁laz	-8005
▁tap	-8006
acing	-8007
ances	-8008
brown	-8009
lated	-8010
ously	-8011
rador	-8012
▁days	-8013
▁dell	-8014
▁dram	-8015
▁dvds	-8016
▁exec	-8017
▁gree	-8018
▁guns	-8019
▁hate	-8020
▁jail	-8021
▁knif	-8022
▁lets	-8023
▁nets	-8024
▁rent	-8025
▁sche	-8026
▁swit	-8027
▁wars	-8028
▁weed	-8029
ainted	-8030
asting	-8031
nished	-8032
weight	-8033
▁attic	-8034
▁avoid	-8035
▁broke	-8036
▁broom	-8037
▁chute	-8038
▁citiz	-8039
▁dolph	-8040
▁drift	-8041
▁dummy	-8042
▁fired	-8043
▁inser	-8044
▁knobs	-8045
▁mayon	-8046
▁media	-8047
▁merry	-8048
▁mossy	-8049
▁motif	-8050
▁nurse	-8051
▁overh	-8052
▁pavil	-8053
▁punch	-8054
▁pyram	-8055
▁shoot	-8056
▁spice	-8057
▁spool	-8058
▁venue	-8059
▁accord	-8060
▁angled	-8061
▁binder	-8062
▁blindf	-8063
▁canyon	-8064
▁disgus	-8065
▁dreary	-8066
▁loving	-8067
▁pliers	-8068
▁prices	-8069
▁rivers	-8070
▁sample	-8071
▁shares	-8072
▁sponge	-8073
▁tights	-8074
▁capture	-8075
▁chimney	-8076
▁doubled	-8077
▁exhaust	-8078
▁fixings	-8079
▁jogging	-8080
▁lincoln	-8081
▁options	-8082
▁pacific	-8083
▁strikes	-8084
▁success	-8085
▁tagging	-8086
▁theatre	-8087
▁centered	-8088
▁confused	-8089
▁dressers	-8090
▁eggplant	-8091
▁filtered	-8092
▁guarding	-8093
▁labrador	-8094
▁pepperon	-8095
▁pleasant	-8096
▁provides	-8097
▁railings	-8098
▁signpost	-8099
▁skylight	-8100
▁apparatus	-8101
▁attacking	-8102
▁clutching	-8103
▁coastline	-8104
▁earphones	-8105
▁extinguis	-8106
▁rectangle	-8107
▁satellite	-8108
▁signaling	-8109
▁streetcar	-8110
▁wakeboard	-8111
▁apparently	-8112
▁exchanging	-8113
▁flatscreen	-8114
▁incredible	-8115
▁protesting	-8116
▁businessmen	-8117
▁arrangements	-8118
▁marshmallows	-8119
▁international	-8120
ob	-8121
asa	-8122
cco	-8123
ota	-8124
por	-8125
▁aj	-8126
ffod	-8127
game	-8128
hawk	-8129
ilts	-8130
iser	-8131
show	-8132
▁bee	-8133
▁bru	-8134
▁fox	-8135
▁gap	-8136
▁lag	-8137
▁mul	-8138
▁nun	-8139
▁shr	-8140
▁sta	-8141
▁ups	-8142
▁ves	-8143
▁vig	-8144
▁why	-8145
asion	-8146
plash	-8147
plate	-8148
stool	-8149
uckoo	-8150
▁boar	-8151
▁cape	-8152
▁curl	-8153
▁flop	-8154
▁fond	-8155
▁hope	-8156
▁lava	-8157
▁oars	-8158
▁once	-8159
▁tale	-8160
legged	-8161
mitive	-8162
spring	-8163
trucks	-8164
usters	-8165
▁canes	-8166
▁chunk	-8167
▁flame	-8168
▁gears	-8169
▁gorge	-8170
▁march	-8171
▁nunch	-8172
▁outer	-8173
▁pamph	-8174
▁sking	-8175
▁uncom	-8176
closure	-8177
sailing	-8178
uristic	-8179
▁accent	-8180
▁adorns	-8181
▁brings	-8182
▁campus	-8183
▁cuckoo	-8184
▁daffod	-8185
▁eleven	-8186
▁fisher	-8187
▁hedges	-8188
▁keeper	-8189
▁lazily	-8190
▁modest	-8191
▁scheme	-8192
▁shaker	-8193
▁straps	-8194
esturing	-8195
inations	-8196
▁blossom	-8197
▁created	-8198
▁describ	-8199
▁lantern	-8200
▁monkeys	-8201
▁netting	-8202
▁passage	-8203
▁privacy	-8204
▁quilted	-8205
▁related	-8206
▁twisted	-8207
▁cheering	-8208
▁clusters	-8209
▁crowding	-8210
▁fatigues	-8211
▁finishes	-8212
▁flushing	-8213
▁kayaking	-8214
▁mercedes	-8215
▁ordinary	-8216
▁piercing	-8217
▁solitary	-8218
▁traveler	-8219
▁upstairs	-8220
▁vacation	-8221
▁assisting	-8222
▁autograph	-8223
▁motocross	-8224
▁multitude	-8225
▁passanger	-8226
▁primitive	-8227
▁additional	-8228
▁connecting	-8229
▁designated	-8230
▁interested	-8231
▁snowmobile	-8232
▁underwater	-8233
▁differently	-8234
▁reflections	-8235
▁checkerboard	-8236
:5	-8237
pm	-8238
wr	-8239
lad	-8240
pse	-8241
sho	-8242
ued	-8243
uly	-8244
wra	-8245
bike	-8246
ella	-8247
etti	-8248
haps	-8249
hell	-8250
irts	-8251
ites	-8252
omet	-8253
sian	-8254
▁ale	-8255
▁civ	-8256
▁der	-8257
▁eth	-8258
▁hog	-8259
▁ink	-8260
▁saw	-8261
▁seg	-8262
▁sip	-8263
about	-8264
elled	-8265
point	-8266
ridge	-8267
tails	-8268
toned	-8269
▁budd	-8270
▁dawn	-8271
▁evil	-8272
▁frol	-8273
▁glue	-8274
▁heat	-8275
▁isle	-8276
▁loll	-8277
▁manu	-8278
▁mart	-8279
▁mayo	-8280
▁mint	-8281
▁nail	-8282
▁peek	-8283
▁pest	-8284
▁plug	-8285
▁plus	-8286
▁resp	-8287
▁ruff	-8288
▁sons	-8289
▁sony	-8290
▁sugg	-8291
▁turf	-8292
ctuary	-8293
knacks	-8294
nasium	-8295
tables	-8296
tiered	-8297
▁aside	-8298
▁casts	-8299
▁chang	-8300
▁creat	-8301
▁crisp	-8302
▁cubes	-8303
▁deter	-8304
▁dying	-8305
▁easel	-8306
▁fills	-8307
▁filth	-8308
▁hoses	-8309
▁judge	-8310
▁likes	-8311
▁pause	-8312
▁showc	-8313
▁trade	-8314
▁uncut	-8315
▁wares	-8316
▁whale	-8317
▁wrink	-8318
erature	-8319
rescent	-8320
▁barred	-8321
▁basins	-8322
▁bought	-8323
▁bowtie	-8324
▁calmly	-8325
▁caring	-8326
▁damage	-8327
▁effect	-8328
▁embank	-8329
▁filing	-8330
▁filmed	-8331
▁foodst	-8332
▁goblet	-8333
▁highly	-8334
▁intent	-8335
▁knifes	-8336
▁korean	-8337
▁loaves	-8338
▁melons	-8339
▁needed	-8340
▁nurses	-8341
▁packet	-8342
▁paints	-8343
▁remove	-8344
▁rubble	-8345
▁signed	-8346
▁skiies	-8347
▁slight	-8348
▁sliver	-8349
▁washes	-8350
▁whites	-8351
▁wilted	-8352
▁yachts	-8353
▁article	-8354
▁bridges	-8355
▁bucking	-8356
▁cameram	-8357
▁cuddles	-8358
▁perhaps	-8359
▁pressed	-8360
▁quarter	-8361
▁reddish	-8362
▁statute	-8363
▁thicket	-8364
▁thought	-8365
▁victory	-8366
▁vulture	-8367
▁wiimote	-8368
▁eighteen	-8369
▁exposure	-8370
▁lemonade	-8371
▁obscured	-8372
▁occasion	-8373
▁pacifier	-8374
▁pavilion	-8375
▁princess	-8376
▁reclines	-8377
▁servings	-8378
▁surfaces	-8379
▁teammate	-8380
▁toasting	-8381
▁unloaded	-8382
▁upcoming	-8383
▁aeroplane	-8384
▁baseballs	-8385
▁bathrooms	-8386
▁birdhouse	-8387
▁bookcases	-8388
▁carpeting	-8389
▁daffodils	-8390
▁gesturing	-8391
▁gymnasium	-8392
▁hairbrush	-8393
▁projected	-8394
▁sanctuary	-8395
▁speedboat	-8396
▁uncovered	-8397
▁appetizing	-8398
▁components	-8399
▁magnifying	-8400
▁pepperonis	-8401
▁vertically	-8402
▁thermometer	-8403
▁extinguisher	-8404
5.	-8405
:4	-8406
fa	-8407
ata	-8408
cer	-8409
fle	-8410
ont	-8411
xim	-8412
▁".	-8413
▁50	-8414
acam	-8415
aler	-8416
eria	-8417
horn	-8418
host	-8419
keep	-8420
mond	-8421
teen	-8422
▁atl	-8423
▁bod	-8424
▁god	-8425
▁hil	-8426
▁ith	-8427
▁wan	-8428
faced	-8429
force	-8430
going	-8431
naise	-8432
onial	-8433
oring	-8434
rical	-8435
ridor	-8436
urely	-8437
▁adds	-8438
▁bout	-8439
▁brid	-8440
▁bulb	-8441
▁capp	-8442
▁cube	-8443
▁fasc	-8444
▁mich	-8445
▁nick	-8446
▁rich	-8447
▁rubs	-8448
▁snoo	-8449
▁sock	-8450
▁test	-8451
▁unin	-8452
▁went	-8453
cially	-8454
estion	-8455
verted	-8456
▁artis	-8457
▁bales	-8458
▁brake	-8459
▁calen	-8460
▁cheet	-8461
▁civil	-8462
▁clips	-8463
▁coins	-8464
▁darth	-8465
▁devel	-8466
▁domin	-8467
▁forty	-8468
▁ghost	-8469
▁grace	-8470
▁hauls	-8471
▁honda	-8472
▁hydro	-8473
▁imple	-8474
▁lasso	-8475
▁patty	-8476
▁peaks	-8477
▁pesto	-8478
▁rafts	-8479
▁scout	-8480
▁squad	-8481
▁tubes	-8482
▁zones	-8483
acamole	-8484
▁active	-8485
▁alcove	-8486
▁assist	-8487
▁blouse	-8488
▁cellar	-8489
▁create	-8490
▁cutout	-8491
▁dealer	-8492
▁decals	-8493
▁depart	-8494
▁floppy	-8495
▁gutter	-8496
▁hanged	-8497
▁humans	-8498
▁lagoon	-8499
▁latest	-8500
▁lotion	-8501
▁manner	-8502
▁padded	-8503
▁pallet	-8504
▁reacts	-8505
▁target	-8506
▁untidy	-8507
▁wrench	-8508
▁zombie	-8509
▁chopper	-8510
▁coastal	-8511
▁embrace	-8512
▁inspect	-8513
▁montage	-8514
▁novelty	-8515
▁plowing	-8516
▁records	-8517
▁samples	-8518
▁updated	-8519
▁walnuts	-8520
▁winning	-8521
▁bringing	-8522
▁captures	-8523
▁clapping	-8524
▁confined	-8525
▁corridor	-8526
▁drizzled	-8527
▁flashing	-8528
▁grafitti	-8529
▁humorous	-8530
▁lingerie	-8531
▁panorama	-8532
▁perching	-8533
▁pizzeria	-8534
▁polished	-8535
▁pretzels	-8536
▁rowboats	-8537
▁spilling	-8538
▁tattered	-8539
▁appetizer	-8540
▁australia	-8541
▁harnessed	-8542
▁manicured	-8543
▁motorcyle	-8544
▁offspring	-8545
▁remaining	-8546
▁resembles	-8547
▁wineglass	-8548
▁chocolates	-8549
▁embankment	-8550
▁futuristic	-8551
▁mayonnaise	-8552
▁protecting	-8553
▁retrieving	-8554
▁convenience	-8555
▁surfboarder	-8556
▁destinations	-8557
▁disorganized	-8558
▁entertaining	-8559
▁straightening	-8560
aul	-8561
ida	-8562
isk	-8563
mal	-8564
owl	-8565
pot	-8566
pri	-8567
ume	-8568
uum	-8569
wth	-8570
▁dj	-8571
▁iv	-8572
aign	-8573
card	-8574
corn	-8575
face	-8576
fish	-8577
isha	-8578
jump	-8579
mark	-8580
ocer	-8581
sels	-8582
wire	-8583
▁add	-8584
▁aid	-8585
▁arc	-8586
▁ate	-8587
▁cgi	-8588
▁cul	-8589
▁ewe	-8590
▁fra	-8591
▁gon	-8592
▁lan	-8593
▁oll	-8594
▁ply	-8595
▁pom	-8596
▁rom	-8597
ville	-8598
▁1950	-8599
▁ajar	-8600
▁bale	-8601
▁chew	-8602
▁dune	-8603
▁gaug	-8604
▁grim	-8605
▁hers	-8606
▁iwth	-8607
▁leis	-8608
▁lick	-8609
▁mist	-8610
▁nike	-8611
▁oats	-8612
▁pace	-8613
▁penn	-8614
▁role	-8615
▁smir	-8616
▁swam	-8617
▁tubs	-8618
▁ward	-8619
allery	-8620
chment	-8621
etrack	-8622
loaded	-8623
presso	-8624
▁allig	-8625
▁audio	-8626
▁badge	-8627
▁chess	-8628
▁coord	-8629
▁crops	-8630
▁draft	-8631
▁dread	-8632
▁dries	-8633
▁exact	-8634
▁fifth	-8635
▁floss	-8636
▁girra	-8637
▁grins	-8638
▁khaki	-8639
▁kiwis	-8640
▁lions	-8641
▁newer	-8642
▁phill	-8643
▁pouch	-8644
▁reser	-8645
▁scrol	-8646
▁stork	-8647
▁surve	-8648
▁texas	-8649
▁thirt	-8650
▁timer	-8651
▁trump	-8652
▁vader	-8653
▁width	-8654
▁wreck	-8655
▁bathed	-8656
▁chicks	-8657
▁closer	-8658
▁closes	-8659
▁clowns	-8660
▁county	-8661
▁crouch	-8662
▁decent	-8663
▁emblem	-8664
▁fourth	-8665
▁grated	-8666
▁heated	-8667
▁herder	-8668
▁jumper	-8669
▁lazing	-8670
▁lowers	-8671
▁orders	-8672
▁overst	-8673
▁pastel	-8674
▁spires	-8675
▁steers	-8676
▁supply	-8677
▁titled	-8678
▁turban	-8679
▁winnie	-8680
▁airshow	-8681
▁apparel	-8682
▁barking	-8683
▁brother	-8684
▁bulding	-8685
▁doctors	-8686
▁gallery	-8687
▁glaring	-8688
▁lowered	-8689
▁measure	-8690
▁pinstri	-8691
▁rackett	-8692
▁reflect	-8693
▁scarves	-8694
▁sightse	-8695
▁sloping	-8696
▁smashed	-8697
▁snowsho	-8698
▁tangled	-8699
▁unpaved	-8700
▁verdant	-8701
▁brunette	-8702
▁canopies	-8703
▁colonial	-8704
▁cordless	-8705
▁dripping	-8706
▁espresso	-8707
▁forklift	-8708
▁gorgeous	-8709
▁hipsters	-8710
▁lavatory	-8711
▁lunchbox	-8712
▁magnetic	-8713
▁mounting	-8714
▁olympics	-8715
▁plumbing	-8716
▁portions	-8717
▁scooping	-8718
▁squatted	-8719
▁sweaters	-8720
▁sweeping	-8721
▁appointed	-8722
▁coverings	-8723
▁dollhouse	-8724
▁guacamole	-8725
▁maneuvers	-8726
▁officials	-8727
▁parchment	-8728
▁protected	-8729
▁rendering	-8730
▁selecting	-8731
▁snowstorm	-8732
▁underpass	-8733
▁vegtables	-8734
▁youngster	-8735
▁conditions	-8736
▁describing	-8737
▁disgusting	-8738
▁protection	-8739
▁roundabout	-8740
▁straddling	-8741
▁description	-8742
▁illustration	-8743
▁intersecting	-8744
agl	-8745
dri	-8746
fee	-8747
fer	-8748
ifi	-8749
ita	-8750
kyo	-8751
oke	-8752
oph	-8753
pic	-8754
wat	-8755
▁od	-8756
alia	-8757
cope	-8758
erns	-8759
fted	-8760
ickr	-8761
ique	-8762
pend	-8763
quit	-8764
real	-8765
rona	-8766
wall	-8767
▁ber	-8768
▁due	-8769
▁hyr	-8770
▁ina	-8771
▁mim	-8772
▁mut	-8773
▁our	-8774
▁tac	-8775
▁tog	-8776
▁wea	-8777
holst	-8778
reeze	-8779
rings	-8780
store	-8781
uette	-8782
▁alot	-8783
▁brim	-8784
▁calz	-8785
▁drab	-8786
▁fift	-8787
▁frit	-8788
▁joke	-8789
▁lumb	-8790
▁sick	-8791
▁solo	-8792
▁stap	-8793
▁virt	-8794
▁yoga	-8795
aloupe	-8796
formed	-8797
shirts	-8798
shower	-8799
spired	-8800
stones	-8801
▁alike	-8802
▁alter	-8803
▁ankle	-8804
▁appre	-8805
▁armed	-8806
▁artic	-8807
▁breed	-8808
▁decal	-8809
▁doggy	-8810
▁drags	-8811
▁dunes	-8812
▁feast	-8813
▁ferns	-8814
▁flops	-8815
▁glare	-8816
▁greek	-8817
▁grips	-8818
▁guest	-8819
▁joint	-8820
▁journ	-8821
▁pedal	-8822
▁scape	-8823
▁scary	-8824
▁speak	-8825
▁tokyo	-8826
▁torto	-8827
matched	-8828
pensive	-8829
venture	-8830
wrapped	-8831
▁artich	-8832
▁bridal	-8833
▁charge	-8834
▁choose	-8835
▁cosmet	-8836
▁disney	-8837
▁energy	-8838
▁ethnic	-8839
▁gauges	-8840
▁geisha	-8841
▁govern	-8842
▁handwr	-8843
▁health	-8844
▁losing	-8845
▁mohawk	-8846
▁mounds	-8847
▁nailed	-8848
▁panini	-8849
▁paragl	-8850
▁summit	-8851
▁teacup	-8852
▁begging	-8853
▁boiling	-8854
▁bunched	-8855
▁crammed	-8856
▁examine	-8857
▁grounds	-8858
▁handful	-8859
▁orchids	-8860
▁patties	-8861
▁pretzel	-8862
▁pyramid	-8863
▁quietly	-8864
▁ripened	-8865
▁rotting	-8866
▁session	-8867
▁sleeves	-8868
▁stories	-8869
▁sucking	-8870
▁unhappy	-8871
▁upholst	-8872
▁wrecked	-8873
▁backward	-8874
▁blossoms	-8875
▁cookware	-8876
▁earrings	-8877
▁engineer	-8878
▁fastened	-8879
▁grasping	-8880
▁handlers	-8881
▁internet	-8882
▁luggages	-8883
▁polaroid	-8884
▁preserve	-8885
▁rhinocer	-8886
▁sequence	-8887
▁steeples	-8888
▁strainer	-8889
▁tractors	-8890
▁vigorous	-8891
▁cameraman	-8892
▁contained	-8893
▁crossroad	-8894
▁decorates	-8895
▁elegantly	-8896
▁excitedly	-8897
▁expensive	-8898
▁performer	-8899
▁racetrack	-8900
▁specialty	-8901
▁spectator	-8902
▁squirting	-8903
▁accessible	-8904
▁apartments	-8905
▁attendants	-8906
▁backsplash	-8907
▁cantaloupe	-8908
▁firetrucks	-8909
▁foodstuffs	-8910
▁frolicking	-8911
▁implements	-8912
▁overweight	-8913
▁seasonings	-8914
▁competitors	-8915
▁conditioner	-8916
▁maneuvering	-8917
▁overstuffed	-8918
▁artistically	-8919
▁contemplating	-8920
▁rollerblading	-8921
ov	-8922
ald	-8923
ili	-8924
ims	-8925
ina	-8926
nut	-8927
▁ny	-8928
ands	-8929
ansa	-8930
ctar	-8931
iful	-8932
ilet	-8933
imon	-8934
lery	-8935
oles	-8936
rily	-8937
scri	-8938
vine	-8939
wash	-8940
wich	-8941
▁alb	-8942
▁ana	-8943
▁atm	-8944
▁dew	-8945
▁gps	-8946
▁hon	-8947
▁sib	-8948
▁sme	-8949
▁tat	-8950
▁toe	-8951
▁vio	-8952
alent	-8953
books	-8954
chain	-8955
ecker	-8956
geles	-8957
orail	-8958
swing	-8959
upper	-8960
▁armo	-8961
▁camo	-8962
▁cash	-8963
▁dach	-8964
▁dial	-8965
▁dies	-8966
▁duct	-8967
▁feel	-8968
▁fits	-8969
▁font	-8970
▁grid	-8971
▁herb	-8972
▁hike	-8973
▁hula	-8974
▁jugs	-8975
▁kale	-8976
▁mate	-8977
▁nasa	-8978
▁proh	-8979
▁punk	-8980
▁ques	-8981
▁rare	-8982
▁requ	-8983
▁sack	-8984
▁scan	-8985
▁seap	-8986
▁shin	-8987
▁silo	-8988
▁slim	-8989
▁sout	-8990
▁tart	-8991
▁toes	-8992
▁unke	-8993
▁wien	-8994
▁worm	-8995
andise	-8996
athing	-8997
headed	-8998
pected	-8999
uccino	-9000
▁alien	-9001
▁anime	-9002
▁badly	-9003
▁claws	-9004
▁corre	-9005
▁daily	-9006
▁drill	-9007
▁dwarf	-9008
▁embro	-9009
▁engra	-9010
▁fairy	-9011
▁files	-9012
▁fudge	-9013
▁grasp	-9014
▁hiker	-9015
▁kimon	-9016
▁ladle	-9017
▁llama	-9018
▁lufth	-9019
▁manip	-9020
▁mario	-9021
▁menus	-9022
▁pages	-9023
▁parka	-9024
▁quant	-9025
▁rifle	-9026
▁ruins	-9027
▁sands	-9028
▁sanit	-9029
▁seren	-9030
▁sheer	-9031
▁simul	-9032
▁trink	-9033
▁wipes	-9034
corated	-9035
▁bodies	-9036
▁breeze	-9037
▁brushy	-9038
▁chests	-9039
▁finely	-9040
▁geomet	-9041
▁greasy	-9042
▁hazard	-9043
▁higher	-9044
▁hikers	-9045
▁insect	-9046
▁kisses	-9047
▁lilies	-9048
▁lollip	-9049
▁muzzle	-9050
▁nectar	-9051
▁pandas	-9052
▁penned	-9053
▁priest	-9054
▁puzzle	-9055
▁rested	-9056
▁shared	-9057
▁siding	-9058
▁skying	-9059
▁strang	-9060
▁straws	-9061
▁sugary	-9062
▁tupper	-9063
urnished	-9064
▁aligned	-9065
▁angeles	-9066
▁appreci	-9067
▁bikinis	-9068
▁blended	-9069
▁buggies	-9070
▁bystand	-9071
▁capital	-9072
▁captain	-9073
▁climate	-9074
▁defaced	-9075
▁dumping	-9076
▁eastern	-9077
▁fondant	-9078
▁glassed	-9079
▁hunting	-9080
▁orderly	-9081
▁perpend	-9082
▁release	-9083
▁runners	-9084
▁russian	-9085
▁sharpen	-9086
▁sheered	-9087
▁shepard	-9088
▁skewers	-9089
▁slatted	-9090
▁soaking	-9091
▁stables	-9092
▁sugared	-9093
▁touring	-9094
▁travers	-9095
▁walkers	-9096
▁wintery	-9097
▁accented	-9098
▁actively	-9099
▁anything	-9100
▁battered	-9101
▁bristles	-9102
▁calendar	-9103
▁coloring	-9104
▁conveyer	-9105
▁creative	-9106
▁dividers	-9107
▁flamingo	-9108
▁grinning	-9109
▁hangings	-9110
▁inviting	-9111
▁lanterns	-9112
▁lowering	-9113
▁monorail	-9114
▁observed	-9115
▁omelette	-9116
▁pretends	-9117
▁screened	-9118
▁teenaged	-9119
▁textured	-9120
▁trimming	-9121
▁unpacked	-9122
▁accordion	-9123
▁adventure	-9124
▁chairlift	-9125
▁condiment	-9126
▁cranberry	-9127
▁jalapenos	-9128
▁lufthansa	-9129
▁represent	-9130
▁shredding	-9131
▁cappuccino	-9132
▁disposable	-9133
▁government	-9134
▁particular	-9135
▁separating	-9136
▁showcasing	-9137
▁telephones	-9138
▁tupperware	-9139
▁volkswagon	-9140
▁firefighter	-9141
▁merchandise	-9142
▁parasailers	-9143
▁sightseeing	-9144
▁doubledecker	-9145
▁perpendicular	-9146
:0	-9147
cr	-9148
fry	-9149
rep	-9150
ror	-9151
ypt	-9152
▁aa	-9153
▁ii	-9154
▁ko	-9155
▁ok	-9156
amer	-9157
anke	-9158
bell	-9159
body	-9160
free	-9161
hake	-9162
iate	-9163
link	-9164
ound	-9165
reet	-9166
sail	-9167
tery	-9168
type	-9169
ucas	-9170
▁ari	-9171
▁gel	-9172
▁hop	-9173
▁ide	-9174
▁pea	-9175
▁spa	-9176
▁usb	-9177
▁wil	-9178
amaha	-9179
color	-9180
eeled	-9181
laska	-9182
onies	-9183
otion	-9184
pened	-9185
rison	-9186
shund	-9187
ucing	-9188
▁adjo	-9189
▁boom	-9190
▁chev	-9191
▁chow	-9192
▁gain	-9193
▁heel	-9194
▁hide	-9195
▁john	-9196
▁jous	-9197
▁mule	-9198
▁nutr	-9199
▁outs	-9200
▁pred	-9201
▁sees	-9202
▁shit	-9203
▁soon	-9204
▁thee	-9205
▁vein	-9206
▁viet	-9207
araunt	-9208
inders	-9209
inging	-9210
inting	-9211
priate	-9212
ressed	-9213
tender	-9214
themed	-9215
uggles	-9216
▁armor	-9217
▁based	-9218
▁bills	-9219
▁broch	-9220
▁gondo	-9221
▁gross	-9222
▁impro	-9223
▁juicy	-9224
▁never	-9225
▁scott	-9226
▁snout	-9227
▁spare	-9228
▁spons	-9229
▁stood	-9230
▁tends	-9231
▁yanke	-9232
▁alaska	-9233
▁batman	-9234
▁braces	-9235
▁bulldo	-9236
▁chaise	-9237
▁chased	-9238
▁determ	-9239
▁diesel	-9240
▁eclect	-9241
▁engage	-9242
▁expert	-9243
▁filter	-9244
▁gotten	-9245
▁halved	-9246
▁hotels	-9247
▁jetway	-9248
▁lesson	-9249
▁mainly	-9250
▁marshy	-9251
▁motoro	-9252
▁occupy	-9253
▁picker	-9254
▁planks	-9255
▁prohib	-9256
▁recess	-9257
▁reveal	-9258
▁rugged	-9259
▁sealed	-9260
▁shelve	-9261
▁shoots	-9262
▁suited	-9263
▁sundae	-9264
▁swampy	-9265
▁tinted	-9266
▁unload	-9267
▁vacuum	-9268
▁watery	-9269
▁wildly	-9270
▁yamaha	-9271
▁aggress	-9272
▁artisan	-9273
▁bounces	-9274
▁cobbled	-9275
▁crushed	-9276
▁curving	-9277
▁dropped	-9278
▁erected	-9279
▁fabrics	-9280
▁fronted	-9281
▁further	-9282
▁girafee	-9283
▁marbled	-9284
▁muscles	-9285
▁politic	-9286
▁popcorn	-9287
▁proceed	-9288
▁shopped	-9289
▁sparrow	-9290
▁species	-9291
▁streams	-9292
▁swimmer	-9293
▁terrace	-9294
▁tuxedos	-9295
▁witting	-9296
▁allowing	-9297
▁buttered	-9298
▁colander	-9299
▁confetti	-9300
▁contrast	-9301
▁darkness	-9302
▁hardware	-9303
▁interest	-9304
▁inverted	-9305
▁junction	-9306
▁keychain	-9307
▁marinara	-9308
▁motorcyl	-9309
▁movement	-9310
▁muscular	-9311
▁nunchuck	-9312
▁overhang	-9313
▁passport	-9314
▁roosters	-9315
▁seaplane	-9316
▁seperate	-9317
▁showcase	-9318
▁stations	-9319
▁wheeling	-9320
▁alligator	-9321
▁bookstore	-9322
▁childrens	-9323
▁cushioned	-9324
▁dachshund	-9325
▁forefront	-9326
▁generated	-9327
▁geometric	-9328
▁graveyard	-9329
▁highlight	-9330
▁paperback	-9331
▁performed	-9332
▁raspberry	-9333
▁sectioned	-9334
▁sunbather	-9335
▁switching	-9336
▁videogame	-9337
▁waterside	-9338
▁windmills	-9339
▁connection	-9340
▁explaining	-9341
▁rhinoceros	-9342
▁selections	-9343
▁undergoing	-9344
▁appropriate	-9345
▁continental	-9346
▁silhouettes	-9347
▁wineglasses	-9348
▁congratulations	-9349
!"	-9350
",	-9351
,.	-9352
0'	-9353
47	-9354
ba	-9355
ju	-9356
ok	-9357
cou	-9358
hip	-9359
iod	-9360
lot	-9361
net	-9362
ros	-9363
tih	-9364
tim	-9365
ulo	-9366
▁"3	-9367
▁13	-9368
▁25	-9369
▁4-	-9370
aroo	-9371
burg	-9372
cans	-9373
chel	-9374
coal	-9375
crow	-9376
eyed	-9377
flip	-9378
irds	-9379
loaf	-9380
olli	-9381
orry	-9382
pose	-9383
uble	-9384
unte	-9385
uter	-9386
writ	-9387
▁alo	-9388
▁cay	-9389
▁eff	-9390
▁los	-9391
▁mos	-9392
▁rag	-9393
▁wis	-9394
ality	-9395
cheon	-9396
cross	-9397
esome	-9398
iency	-9399
ilded	-9400
inity	-9401
laged	-9402
locks	-9403
toons	-9404
undra	-9405
▁aims	-9406
▁bead	-9407
▁bees	-9408
▁copy	-9409
▁damp	-9410
▁dyed	-9411
▁feta	-9412
▁flea	-9413
▁hipp	-9414
▁kang	-9415
▁knob	-9416
▁loop	-9417
▁loos	-9418
▁marg	-9419
▁mild	-9420
▁mout	-9421
▁paid	-9422
▁skii	-9423
▁slot	-9424
▁sole	-9425
▁stam	-9426
▁tend	-9427
▁thai	-9428
▁urns	-9429
▁wolf	-9430
▁wtih	-9431
▁zoom	-9432
adilla	-9433
allets	-9434
boards	-9435
friend	-9436
inated	-9437
itious	-9438
skirts	-9439
tening	-9440
writer	-9441
▁aimed	-9442
▁amate	-9443
▁birdc	-9444
▁curry	-9445
▁devil	-9446
▁draws	-9447
▁gnome	-9448
▁hitch	-9449
▁lucky	-9450
▁mache	-9451
▁minor	-9452
▁naval	-9453
▁nears	-9454
▁often	-9455
▁paths	-9456
▁scant	-9457
▁scare	-9458
▁shift	-9459
▁solid	-9460
▁spiky	-9461
▁spins	-9462
▁tacos	-9463
▁tours	-9464
▁traff	-9465
▁trium	-9466
▁unbut	-9467
▁units	-9468
through	-9469
▁cleans	-9470
▁disemb	-9471
▁easily	-9472
▁enters	-9473
▁folder	-9474
▁freeze	-9475
▁frothy	-9476
▁future	-9477
▁giants	-9478
▁gilded	-9479
▁gloved	-9480
▁growth	-9481
▁halter	-9482
▁joined	-9483
▁period	-9484
▁please	-9485
▁plowed	-9486
▁prison	-9487
▁rodent	-9488
▁skirts	-9489
▁sloppy	-9490
▁stucco	-9491
▁territ	-9492
▁valent	-9493
▁videos	-9494
▁wedged	-9495
▁armoire	-9496
▁belongs	-9497
▁brought	-9498
▁bruised	-9499
▁butting	-9500
▁ceremon	-9501
▁chipped	-9502
▁choices	-9503
▁clement	-9504
▁closing	-9505
▁comical	-9506
▁custard	-9507
▁dancers	-9508
▁dodgers	-9509
▁enforce	-9510
▁florida	-9511
▁garland	-9512
▁garment	-9513
▁heights	-9514
▁housebo	-9515
▁knights	-9516
▁leashed	-9517
▁packets	-9518
▁pretend	-9519
▁relaxed	-9520
▁shorter	-9521
▁skinned	-9522
▁sorting	-9523
▁teaches	-9524
▁totally	-9525
▁trained	-9526
▁turnips	-9527
▁vessels	-9528
▁virtual	-9529
▁volunte	-9530
▁wanting	-9531
ification	-9532
▁campaign	-9533
▁carvings	-9534
▁charcoal	-9535
▁consumed	-9536
▁cresting	-9537
▁dirtbike	-9538
▁dramatic	-9539
▁emitting	-9540
▁entryway	-9541
▁flapping	-9542
▁grounded	-9543
▁hairless	-9544
▁holidays	-9545
▁hydrogen	-9546
▁kangaroo	-9547
▁luncheon	-9548
▁mousepad	-9549
▁musician	-9550
▁ponytail	-9551
▁postcard	-9552
▁question	-9553
▁register	-9554
▁retrieve	-9555
▁snapshot	-9556
▁surgical	-9557
▁acrobatic	-9558
▁balconies	-9559
▁bicycling	-9560
▁confusing	-9561
▁dumplings	-9562
▁inclosure	-9563
▁indicator	-9564
▁mcdonalds	-9565
▁navigates	-9566
▁outskirts	-9567
▁respected	-9568
▁socialize	-9569
▁teddybear	-9570
▁tortillas	-9571
▁unripened	-9572
▁dealership	-9573
▁efficiency	-9574
▁evergreens	-9575
▁exhibition	-9576
▁outfielder	-9577
▁resembling	-9578
▁restaraunt	-9579
▁skillfully	-9580
▁typewriter	-9581
▁attentively	-9582
▁enforcement	-9583
▁intricately	-9584
▁peripherals	-9585
▁storefronts	-9586
▁upholstered	-9587
▁anticipation	-9588
▁concentrates	-9589
.,	-9590
1.	-9591
vo	-9592
▁#	-9593
:00	-9594
cif	-9595
dom	-9596
eye	-9597
ffy	-9598
leg	-9599
ose	-9600
pad	-9601
ply	-9602
spe	-9603
uge	-9604
zes	-9605
▁dc	-9606
▁oo	-9607
chie	-9608
itam	-9609
ople	-9610
ords	-9611
outs	-9612
phan	-9613
▁ads	-9614
▁avo	-9615
▁dup	-9616
▁dye	-9617
▁ful	-9618
▁hen	-9619
▁pes	-9620
▁pun	-9621
▁pup	-9622
▁ray	-9623
▁uns	-9624
aired	-9625
ended	-9626
enger	-9627
goers	-9628
ichen	-9629
ounts	-9630
ulous	-9631
usion	-9632
▁bold	-9633
▁buid	-9634
▁chal	-9635
▁coco	-9636
▁cove	-9637
▁dism	-9638
▁flus	-9639
▁huts	-9640
▁imac	-9641
▁join	-9642
▁limo	-9643
▁loom	-9644
▁nurs	-9645
▁pail	-9646
▁pics	-9647
▁tand	-9648
▁vaul	-9649
▁yaks	-9650
aphern	-9651
bulent	-9652
change	-9653
flight	-9654
gested	-9655
idered	-9656
izable	-9657
keeper	-9658
ongous	-9659
ooding	-9660
person	-9661
stride	-9662
▁blend	-9663
▁calls	-9664
▁cents	-9665
▁comfy	-9666
▁crows	-9667
▁derby	-9668
▁erect	-9669
▁frown	-9670
▁glows	-9671
▁grits	-9672
▁intri	-9673
▁laces	-9674
▁prior	-9675
▁prize	-9676
▁quote	-9677
▁scrap	-9678
▁sedan	-9679
▁shamp	-9680
▁shorn	-9681
▁sling	-9682
▁spout	-9683
▁squid	-9684
▁stony	-9685
▁teles	-9686
▁twirl	-9687
▁wakeb	-9688
▁willi	-9689
▁write	-9690
ifiable	-9691
▁actual	-9692
▁admire	-9693
▁allows	-9694
▁barbec	-9695
▁caucas	-9696
▁chilli	-9697
▁crispy	-9698
▁crucif	-9699
▁dandel	-9700
▁depict	-9701
▁dipped	-9702
▁estate	-9703
▁flyers	-9704
▁gently	-9705
▁google	-9706
▁locker	-9707
▁longer	-9708
▁lumber	-9709
▁mingle	-9710
▁mitten	-9711
▁oblong	-9712
▁outcro	-9713
▁overly	-9714
▁peopel	-9715
▁simply	-9716
▁sister	-9717
▁skulls	-9718
▁slacks	-9719
▁slicer	-9720
▁tapest	-9721
▁theres	-9722
▁toiled	-9723
▁toyota	-9724
▁unison	-9725
▁amateur	-9726
▁amounts	-9727
▁backing	-9728
▁bunting	-9729
▁causing	-9730
▁cowgirl	-9731
▁entrees	-9732
▁gondola	-9733
▁goodies	-9734
▁jackson	-9735
▁mothers	-9736
▁orioles	-9737
▁padding	-9738
▁partner	-9739
▁pausing	-9740
▁pontoon	-9741
▁presses	-9742
▁quality	-9743
▁rusting	-9744
▁saddles	-9745
▁scruffy	-9746
▁shading	-9747
▁shadowy	-9748
▁shocked	-9749
▁smeared	-9750
▁springs	-9751
▁technic	-9752
▁wanders	-9753
▁yelling	-9754
▁attended	-9755
▁baguette	-9756
▁banister	-9757
▁blending	-9758
▁bodysuit	-9759
▁citizens	-9760
▁coconuts	-9761
▁descends	-9762
▁eclectic	-9763
▁exciting	-9764
▁farmland	-9765
▁feasting	-9766
▁focusing	-9767
▁handsome	-9768
▁involved	-9769
▁meatloaf	-9770
▁motorola	-9771
▁navigate	-9772
▁proceeds	-9773
▁recorder	-9774
▁returned	-9775
▁scallops	-9776
▁sheepdog	-9777
▁snoozing	-9778
▁snuggles	-9779
▁splashes	-9780
▁squadron	-9781
▁thatched	-9782
▁thinking	-9783
▁thorough	-9784
▁trainers	-9785
▁trolleys	-9786
▁trophies	-9787
▁unpeeled	-9788
aphernalia	-9789
▁attaching	-9790
▁attentive	-9791
▁bartender	-9792
▁broccolli	-9793
▁congested	-9794
▁delivered	-9795
▁fountains	-9796
▁gardening	-9797
▁humongous	-9798
▁leftovers	-9799
▁opponents	-9800
▁patchwork	-9801
▁seriously	-9802
▁snowshoes	-9803
▁sparkling	-9804
▁strangely	-9805
▁tangerine	-9806
▁territory	-9807
▁turbulent	-9808
▁australian	-9809
▁autographs	-9810
▁barricades	-9811
▁bystanders	-9812
▁ceremonial	-9813
▁collecting	-9814
▁exercising	-9815
▁illuminate	-9816
▁landscaped	-9817
▁mismatched	-9818
▁overloaded	-9819
▁performers	-9820
▁quesadilla	-9821
▁respective	-9822
▁suspension	-9823
▁toothpicks	-9824
▁vigorously	-9825
▁embroidered	-9826
▁fashionable	-9827
▁handwritten	-9828
▁interviewed	-9829
▁mountaintop	-9830
▁necessities	-9831
▁temperature	-9832
▁wildebeests	-9833
▁affectionate	-9834
▁anticipating	-9835
▁congregating	-9836
▁wakeboarding	-9837
▁paraphernalia	-9838
▁unidentifiable	-9839
4.	-9840
ben	-9841
bet	-9842
bra	-9843
cat	-9844
dul	-9845
eng	-9846
fla	-9847
hen	-9848
irs	-9849
ona	-9850
rer	-9851
rom	-9852
tic	-9853
ule	-9854
urb	-9855
▁66	-9856
▁au	-9857
▁ci	-9858
▁pm	-9859
▁ze	-9860
asse	-9861
dery	-9862
edic	-9863
ello	-9864
eral	-9865
ghan	-9866
lamp	-9867
lest	-9868
moun	-9869
olly	-9870
otes	-9871
ripe	-9872
seen	-9873
site	-9874
▁747	-9875
▁elf	-9876
▁ess	-9877
▁gle	-9878
▁ker	-9879
▁rev	-9880
▁twp	-9881
▁wth	-9882
▁zip	-9883
aping	-9884
arent	-9885
chers	-9886
dulum	-9887
epads	-9888
guing	-9889
hound	-9890
iment	-9891
isley	-9892
rolet	-9893
urant	-9894
urfer	-9895
watch	-9896
▁ally	-9897
▁arug	-9898
▁bann	-9899
▁bass	-9900
▁bomb	-9901
▁born	-9902
▁cara	-9903
▁clas	-9904
▁crot	-9905
▁deal	-9906
▁deco	-9907
▁drag	-9908
▁duty	-9909
▁faux	-9910
▁fort	-9911
▁fron	-9912
▁ging	-9913
▁isol	-9914
▁maid	-9915
▁mani	-9916
▁mare	-9917
▁mash	-9918
▁mode	-9919
▁pate	-9920
▁plot	-9921
▁puff	-9922
▁rims	-9923
▁ripp	-9924
▁rods	-9925
▁scri	-9926
▁ster	-9927
▁sumo	-9928
▁tote	-9929
▁unic	-9930
▁veil	-9931
antage	-9932
▁	-9933
a	-9934
e	-9935
n	-9936
t	-9937
o	-9938
i	-9939
r	-9940
s	-9941
l	-9942
h	-9943
d	-9944
g	-9945
c	-9946
p	-9947
w	-9948
b	-9949
f	-9950
u	-9951
m	-9952
.	-9953
k	-9954
y	-9955
v	-9956
z	-9957
x	-9958
,	-9959
j	-9960
'	-9961
q	-9962
-	-9963
"	-9964
2	-9965
1	-9966
3	-9967
0	-9968
5	-9969
4	-9970
/	-9971
:	-9972
9	-9973
6	-9974
;	-9975
7	-9976
8	-9977
?	-9978
&	-9979
!	-9980
)	-9981
(	-9982
$	-9983
#	-9984
=	-9985
`	-9986
[	-9987
>	-9988
\	-9989
@	-9990
]	-9991
+	-9992
*	-9993
_	-9994
%	-9995
